#version: 0.2
Ġ t
u r
Ġ a
t ur
i n
tur n
Ġ <
h e
o u
Ġ s
r e
Ġ I
Ġ w
h a
Ġ y
Ġ m
o n
Ġt he
Ġ c
Ġ b
Ġy ou
e r
Ġt o
in g
l l
i t
Ġ f
Ġ d
o r
e s
i s
a n
Ġ l
Ġ p
e n
ha t
Ġ g
v e
Ġ o
a r
o m
Ġa n
l e
Ġ n
o w
e d
Ġ W
Ġ ha
Ġ in
e t
s t
a t
a y
Ġ e
Ġt h
Ġ it
Ġo f
Ġ T
Ġ is
g h
o t
i c
k e
Ġan d
s e
Ġ re
i d
Ġb e
l d
Ġf or
Ġ Y
â Ģ
o o
âĢ Ļ
o ur
Ġd o
' s
Ġ he
Ġ *
Ġ on
Ġha ve
Ġl i
Ġ H
Ġw e
u t
Ġt hat
Ġ h
Ġm e
gh t
v er
ou t
i on
a c
a l
a s
ou ld
Ġa re
Ġy our
en t
a ll
Ġ A
Ġ r
e ll
' t
Ġ S
Ġ u
Ġs t
i m
Ġc an
Ġ j
Ġn e
Ġs e
i r
l y
Ġli ke
in k
om e
a d
Ġm y
Ġ M
ĠW hat
n d
Ġ k
Ġg o
i ght
i ll
it h
Ġ O
ĠI t
c h
Ġ C
Ġ D
Ġth is
Ġw ith
Ġa b
an t
oo d
a m
t er
ĠT he
all y
Ġ B
r o
ĠY es
u st
Ġe x
i f
Ġab out
Ġa t
Ġs o
ĠY ou
ver y
Ġ N
l a
c t
o s
' m
u l
Ġth ink
Ġs p
Ġk n
y es
Ġd on
a ke
Ġg et
Ġm o
r i
oo k
ha n
Ġkn ow
. .
he r
Ġs h
c e
Ġw as
t h
id e
o p
Ġn ot
b le
Ġw or
r y
Ġw ant
Ġb ut
Ġse e
Ġw hat
Ġthe re
Ġc om
ou n
ĠH ow
ic e
re s
Ġw ill
p p
Ġs ome
in d
en d
u s
Ġa s
g e
a se
im e
Ġan y
Ġ or
at ion
ĠT hat
e a
Ġ 1
Ġj o
Ġw ould
e re
d y
Ġon e
ac k
Ġp ro
ar t
Ġex p
Ġa l
Ġa ll
i ve
Ġj ust
Ġd e
Ġ L
Ġg ood
Ġne ed
Ġs u
i l
ĠW e
r a
ĠD o
q u
m ent
Ġp l
d ay
Ġhe re
es t
le ase
Ġf r
tur e
ar k
Ġt ime
Ġd id
Ġre ally
Ġ very
ur e
on g
Ġw h
res s
Ġl ook
a st
Ġ out
Ġgo ing
i le
es s
at e
on e
Ġwor k
Ġb o
ĠW ell
er s
or t
Ġr ight
Ġa m
Ġs m
Ġto o
ell o
Ġu p
he n
i g
c k
ĠN o
in e
p os
Ġm u
l p
Ġfr om
v en
i e
a in
ĠO h
Ġhe lp
an y
Ġmu ch
f ul
Ġthe y
r ink
l ing
is t
Ġo ur
Ġ P
Ġcom p
Ġc o
e ar
Ġc l
ar d
u n
Ġe yes
n ing
c y
he re
' ll
Ġp lease
Ġ G
ou nd
ĠB ut
Ġ if
Ġ F
g r
Ġc on
Ġu s
Ġt ake
Ġ J
han k
Ġ E
Ġ -
pos ture
Ġf e
an d
Ġli ght
e yes
Ġ qu
Ġbe en
ĠW h
u m
e l
' ve
am e
Ġl o
in s
Ġof f
Ġin t
re e
Ġb ack
o re
Ġne w
Ġbo dy
Ġsh ould
ay s
Ġ R
h ing
Ġn ow
Ġa g
la x
Ġre lax
it e
k ing
re at
Ġa f
Ġh ow
e p
Ġ1 2
Ġb oun
Ġboun cy
Ġsm ile
Ġg ot
w ide
Ġsp ark
Ġspark ling
u gh
Ġrelax ed
it y
ĠH ello
th ing
gr ins
ress ion
a re
ugh s
la ughs
n t
r ow
ic k
Ġr o
' d
Ġexp ression
Ġjo y
Ġjoy ful
Ġc rink
Ġcrink le
Ġthe m
Ġ v
Ġn o
as s
Ġmo re
ĠI s
ĠA nd
i es
om et
oun t
a p
ac e
Ġc ould
Ġe very
u se
' re
Ġb us
Ġp e
op le
e ct
Ġb u
Ġm ake
Ġp r
Ġc he
a g
o l
ou s
Ġha d
ir st
Ġo ver
Ġha s
Ġl ot
e k
ĠT hank
m s
Ġs a
Ġt w
ĠH e
ĠC an
ĠT h
Ġwe ek
is h
Ġto day
Ġpe ople
Ġs he
.. .
Ġt ell
d er
Ġ en
Ġb y
Ġs omet
Ġc h
Ġw hen
or ning
Ġa r
Ġt r
t her
Ġs ure
ac t
Ġc ome
re d
0 0
Ġhe r
Ġl ong
ĠM y
Ġm orning
Ġy ear
c i
Ġs ir
Ġwe ll
Ġth ing
v ing
ac h
Ġc all
Ġg reat
ou gh
Ġpro ble
Ġro om
Ġp re
f f
Ġdo es
c c
a ge
ĠWh y
Ġd ay
ow n
Ġf irst
Ġk ind
Ġjo b
W hat
ĠC h
a ble
Ġc our
it t
Ġt e
Ġ &
b er
a k
l f
Ġaf ter
or ry
ĠThe y
ĠA re
a ve
t y
Ġa pp
Ġsomet hing
u ally
ĠS o
i p
if f
ĠO K
Ġthe n
ea h
ic h
ĠL et
Ġm any
l o
ar y
Ġ V
Ġp art
Ġtw o
Ġw ay
Ġme et
ĠThe re
p ort
Ġl ast
ĠM ay
Ġw on
Ġy es
Ġo ther
Ġb et
Ġdid n
Ġbu y
ĠTh is
Ġl et
x t
Ġa d
Ġst u
Ġcour se
Ġb r
Ġo p
Ġproble m
ou ght
Ġon ly
s o
n g
Ġany thing
oo l
Ġwe re
Ġc ar
ĠM r
Ġp er
Ġf ind
b e
Ġ im
Ġd own
f ore
an ce
o se
Ġg u
Ġs ay
Ġcomp any
he d
a b
er v
Ġre s
ri end
g et
ĠS ure
out h
Ġw r
an s
Ġlo ve
ad y
Ġse x
one y
Ġha pp
is ed
Ġche ck
Ġh im
Ġn ame
Ġr a
u e
ĠY eah
ere st
Ġsex y
Ġbe fore
Ġt ra
Ġp ay
Ġg r
Ġd iff
ot her
Ġu n
er t
itt le
Ġint erest
X X
Ġ 2
Ġl ittle
Ġm ay
Ġe ven
it ion
ĠI f
Ġal so
Ġl ea
i z
Ġt ry
ĠCh in
Ġg ive
ĠH ere
a il
Ġs orry
e m
Ġm on
en s
Ġpl ay
i gh
ig n
Ġst art
Ġint o
Ġn ight
Ġne xt
ha r
w ay
ad e
a use
at er
at her
Ġm an
Ġmon th
w ays
Ġm outh
m er
Ġwh o
Ġh ome
Ġu se
Ġbe c
Ġw here
Ġt han
Ġm in
Ġn ice
Ġal ways
Ġc han
Ġm ust
Ġs l
at ch
Ġcl ass
Ġra ised
ĠS he
Ġm oney
Ġa cc
Ġme an
Ġthing s
al k
Ġbet ter
v ie
is e
Ġl e
in t
Ġas k
Ġdo ing
H ello
Ġf riend
ar s
Ġ U
ou se
or row
ĠI n
Ġmo st
ĠW here
ĠD id
Ġfe el
Ġop en
Ġfe w
ĠH ave
is s
Ġf ood
t ing
ĠW ould
Ġs ch
Ġf ree
o st
d u
ĠW hen
Ġ ke
i ver
nd s
Ġh is
G ood
m p
ĠO k
an c
es e
ĠR e
a it
Ġf l
ĠN ot
Ġthe se
a v
Ġ ide
o ot
Ġb ad
Ġd is
H ow
Ġin ter
art ment
ĠD on
ound s
er i
t e
Ġb ig
Ġst ill
an g
Ġlook ing
Ġp os
or m
n er
Ġsch ool
b o
Ġf in
p t
Ġp ut
x c
Ġre c
Ġha r
Ġmin ut
Ġto m
Ġwh y
i re
Ġhe ad
se lf
ion s
.. ..
i ld
Ġpl an
Ġs c
Ġdiff ere
Ġag ain
ĠG ood
i ly
l es
Ġmo ve
ĠE ng
en ce
ĠV e
Ġne ver
nd er
in ess
Ġb ook
Ġh our
on d
ĠA n
Ġf am
Ġsh ow
Ġc ard
Ġd ays
l ish
p artment
ri ed
Ġth ree
e e
n o
Ġtom orrow
e ci
Ġh ouse
f t
Ġde c
Ġor der
Ġb l
xc use
Ġex c
Ġe at
Ġp h
he s
Ġin st
ur n
Ġyear s
Ġthe ir
H i
ct ually
Ġb est
Ġpl ace
Ġide a
Ġbec ause
Ġcon t
Ġu nder
Ġc ount
ha nds
Ġth ought
Ġhar d
Ġt hank
Ġar ound
ĠRe ally
Ġha ven
Ġsu pp
Ġf ace
Ġm a
Ġbus iness
s i
op e
ĠC ould
ĠEng lish
g g
u ll
Ġqu ite
Ġsp ea
Ġm ind
e w
Ġoff ice
Ġ 3
Ġd rink
Ġhe ard
Ġm ade
bo dy
Ġwork ing
ve l
o y
Ġw ait
Ġ $
Ġ K
Ġis n
Ġe l
ĠJ ust
ent s
Ġl ate
E xcuse
no on
im es
Ġafter noon
ment s
t en
ĠA ll
w e
or d
ĠO f
Ġs al
Ġy et
Ġbe l
Ġcomp ut
Ġel se
Ġo ld
ĠP lease
Ġdiffere nt
Ġdo ll
ie ve
ation s
ers on
i v
ĠChin ese
D o
ĠB e
Ġsa id
Ġs ha
Ġh ot
Ġwh ich
Ġpr ice
Ġp ass
ĠThe n
n e
Ġd in
ĠThank s
Ġpro du
Ġn um
Ġt on
u d
Ġwon der
Ġf ine
Ġs k
Ġb it
j oy
f er
Ġdoes n
i x
t ty
Ġd ri
ert ain
k s
Ġhapp en
o int
Ġt a
f orm
ra id
Ġen joy
ll e
Ġe ach
ot h
Ġaf raid
Y ou
Ġst ay
C an
Ġre st
Ġc har
w n
Ġe ar
ul ar
Ġc are
Ġre m
Ġhe ar
ĠS t
Ġd es
Ġt en
Ġg l
Ġh igh
Ġacc ount
Ġke ep
at ed
p le
a ut
Ġwr ong
ul t
an k
Ġl ear
Ġat t
Ġlook s
ic al
Ġton ight
as h
re ady
Ġal ready
Ġ 5
Ġnum ber
Ġdin ner
Ġre ad
Ġbe aut
Ġevery thing
ick et
iz e
Ġget ting
ĠF r
Ġim port
u nd
Ġh ope
Ġt alk
Ġminut es
Ġan other
l ic
Ġpre tty
Ġt icket
ak es
Ġs ounds
Ġm om
Ġdoll ars
u p
Ġus ually
Ġwh ile
Ġb re
or k
Ġin v
Ġbel ieve
Ġc le
ct or
Ġsp eci
XX XX
Ġcomput er
Ġg ir
Ġcom ing
Ġeven ing
a i
Ġin c
Ġm at
ap e
Ġw atch
Ġa ir
oot s
iver s
Ġp erson
a ir
Ġse c
ct ion
Ġpart y
anc ing
Ġspeci al
ĠB oots
Ġha nd
Ġs ame
Ġre ady
Ġt er
mer ic
Ġd ist
Ġs y
Ġe as
row s
Ġs erv
Ġof ten
Ġsh op
Ġin s
Ġli ve
Ġdon e
ĠMay be
Ġm ight
Ġfam ily
ĠH i
Ġsu ch
Ġimport ant
Ġ1 0
Ġchan ge
Ġre g
p s
Ġl ist
ĠA meric
Ġr un
Ġv is
Ġbeaut if
o g
al s
H e
Ġso on
it ing
ĠN ow
Ġmeet ing
Ġfree z
ap er
ertain ly
Ġe ver
or y
Ġlea ve
Ġf ive
Ġth r
Ġstu d
l or
ĠA l
b rows
Ġgu ess
f e
Ġs et
Ġbeautif ul
st and
Ġm us
Ġqu est
em ber
Ġus ed
re n
ct ive
Ġc ity
o h
vie w
Ġst op
Ġag ape
Ġst r
Ġw ide
Ġc ur
Ġa way
Ġm ar
Ġph one
Ġco st
Ġen ough
ark et
id ay
ail s
it ies
as on
Ġf un
i a
i red
Ġsm all
Ġw ent
it s
Ġfriend s
Ġa partment
si ble
Ġthr ough
s s
Ġa v
a ur
it ed
Ġp res
Ġse en
p ing
Ġf av
c ome
u b
Ġoff er
Ġmo vie
Ġweek end
o ll
Ġinterest ed
ĠY our
a w
Ġdis c
Ġexp eri
o d
Ġexp ens
ic es
f ort
Ġt ri
at es
Ġfreez es
Ġcount ry
Ġse at
ab ly
Ġle ft
Ġhour s
i ous
Ġnew s
Ġt urn
Ġth ose
ce pt
Ġstu dy
Ġha ving
Ġunder stand
s h
u an
l i
Ġto ld
ĠWh ich
Ġtra in
ter day
Ġmom ent
ĠW ill
Ġhapp y
T he
Ġch ild
t s
Ġspea k
get her
Ġa c
ep s
i an
Ġf ar
Ġm iss
Ġad d
A re
v es
Ġf ound
Ġbr ing
ivers ity
Ġthink ing
lo ck
Ġwor ry
I t
Ġ end
Ġgl ad
p er
Ġfav or
Ġprodu ct
Ġl ar
Ġa ctually
aur ant
Ġyes terday
ĠAn y
i ent
in ctive
ĠChin a
Ġj er
in ce
Ġhappen ed
Ġexpens ive
Ġs end
ĠF or
Ġjer ks
Ġin form
c hed
Ġsee ms
Ġlear n
ou ble
Ġbre ak
st eps
Ġmus ic
Ġinst inctive
Ġdist ancing
Ġinstinctive ly
Ġs ign
ro om
lo y
Ġinter view
ar ms
.... ....
u ck
Ġk id
Ġinterest ing
Ġc ut
i al
o b
Ġcall ed
Ġag o
Ġab le
M ay
os s
oh n
if ic
b ably
Ġfor m
Ġgir l
Ġo k
ĠWh o
Ġwor ld
om m
Ġcon s
Ġbus y
er y
or s
are nt
un ch
Ġha ir
Ġs ing
um p
f ect
Ġpre fer
ĠL ook
ĠN ew
a tur
r act
Ġserv ice
Ġe mp
Ġexperi ence
He y
Ġw in
ĠOk ay
o ck
Ġo wn
Ġf our
os ed
ĠDo es
Ġc ook
Ġt y
Ġrest aurant
Ġto gether
p e
en se
Ġrem ember
re et
Ġb ought
Ġpr om
Ġthank s
Ġim p
Ġeas y
Ġmat ter
Ġtr ue
o ld
Ġs ur
if e
Ġb ir
Ġre al
ro ss
ff ee
Ġre ce
n y
r ight
Ġb ed
Ġli fe
Ġbe ing
al king
ag er
i ke
e ver
Ġmy self
Ġs it
at ing
Ġc r
Ġt able
m ost
Ġsp end
ent y
on s
pp ed
Ġsome one
o es
Ġtr ans
Ġp ack
00 0
Ġre l
Ġcl ot
i et
ip s
a z
ĠT o
nt il
Ġgu y
Ġw ater
e f
Ġlar ge
Ġ 4
Ġm arket
Ġres erv
is hed
ĠU n
Ġfe e
Ġtri p
u al
al th
Ġnot hing
Ġex am
ter n
Ġ 6
Ġw ar
ĠA s
id es
Ġco ffee
Ġc am
ĠJ ohn
S o
d ing
ĠW ow
Ġu ntil
Ġyour self
Ġpos sible
Ġcom m
Ġd ress
Ġb oth
Ġsa w
Ġp arent
Ġfl ight
Ġco lor
Ġwe ather
ri es
Ġsu it
Ġc or
act ly
Ġex t
le ep
Ġpos ition
Ġ 7
ri ble
Ġag ree
Ġbir th
w here
Ġinform ation
W e
Ġc ou
Ġse ver
W h
Ġcom fort
Ġwe ar
ai la
Ġsever al
ĠM ary
Ġmay be
Ġb ur
ĠS orry
Ġst and
Ġsu m
Ġf ill
Ġth ir
i ed
Ġav aila
w ard
Ġf act
Ġsu gg
Ġsugg est
an ge
Ġv ac
Ġqu al
Ġre nt
t ime
Ġp ick
Ġdo ctor
Ġclot hes
ĠC ome
Ġf ull
Ġpro bably
Ġparent s
Ġp ol
Ġl ater
omm end
in es
Ġd ate
Ġad v
ve d
Ġexp ect
Ġta king
et h
ĠG reat
Ġc ame
Ġco ld
Ġrec ommend
Ġde p
Ġgr ad
g er
Ġemp loy
j ing
Ġb oss
Ġte ac
Ġte am
Ġha lf
id ent
Ġsh ort
Ġinter n
b r
l ud
Ġbe g
ĠA ctually
Ġal most
Ġre p
ag es
Ġp op
le as
Ġ 8
Ġb ank
er c
ĠS m
H ave
Ġe le
ot t
ĠB y
Ġwant ed
Ġmo lle
Ġw alk
Ġw ife
ĠFr iday
Ġlo st
Ġh ur
Ġf ore
ĠT om
Ġcon f
Ġm ach
Ġch o
Ġreserv ation
c lock
Ġre qu
Ġsu b
Ġavaila ble
j ect
Ġde ep
Ġre d
Ġp ark
Ġr ather
Ġchar ge
Ġc red
am es
id ed
Ġt imes
Ġmonth s
Ġde partment
Ġne ar
is ter
Ġsec ond
ere d
Ġare n
Ġre f
Ġcon d
Ġshop ping
Ġb ag
Ġcon c
Ġstart ed
eri ous
Ġhe ld
I s
r ic
Ġweek s
Ġp a
n ce
B ut
Ġman ager
Ġbirth day
re en
m m
Ġcle an
Ġcond ition
i jing
Ġ ent
Ġp ic
c ri
Ġfavor ite
le d
at h
ĠHe y
ĠBe ijing
Ġde al
Ġproduct s
Ġb ill
Ġr ain
Ġs ix
p r
Ġapp oint
u ght
u es
p h
Ġex erc
Ġvis it
er a
Ġhe alth
Ġsee m
Ġdiff ic
l ine
ut e
Ġl unch
Ġs w
Ġcall ing
l come
Ġs ell
ĠE very
b y
ation al
ur ing
ent ly
Ġin d
ac ing
Ġp ain
b all
Ġs ince
oo se
ff ic
Ġb ro
Ġw ind
ic s
Ġf il
Ġsl ow
Ġteac her
ĠM on
ust om
Ġc ash
Ġs erious
Ġth ough
ĠA f
ort s
Ġ 9
Ġdri ve
Ġtoo k
Ġlet ter
ad am
Ġp leas
Ġun iversity
Ġs ize
n a
Ġm et
ĠM e
Ġli ving
Ġinc lud
Ġh on
ĠC ertainly
Ġd ire
um e
c es
Ġhot el
Ġapp ly
r u
Ġb as
Ġm ed
Ġy uan
Ġas s
Ġd ig
Ġsum mer
ĠSm ith
ent ion
ist s
Ġcred it
Ġsupp osed
ĠO ur
Ġwould n
Ġ hat
Ġw ra
Ġear ly
Ġex actly
XXXX XXXX
Ġf ast
Ġs leep
Ġco ll
Ġfee ling
ear s
Ġminut e
Ġma j
atur day
Ġ ve
Ġwr ite
c ast
s ide
Ġma king
Ġw ish
Ġt ight
it her
ĠF ine
Ġm ain
Ġre turn
ĠO ne
Ġre ason
Ġt alking
it al
ĠT V
ic y
ĠS aturday
Ġg ame
Ġwas n
Ġevery one
w ork
ĠA t
Ġl ine
Ġdiffic ult
D id
r ist
Ġto p
Ġsal es
Ġchild ren
Ġm akes
Ġmar ried
Ġb ar
row n
Ġp oint
ĠA b
Ġper fect
Ġtry ing
Ġst y
ĠF irst
Ġf lo
gr am
Ġpre p
Ġappoint ment
u c
Ġto t
Ġst reet
Ġt ea
Ġp al
c ed
Ġl uck
Ġdec ided
Ġcomp le
Ġter rible
Ġc ha
Ġd et
Ġs igh
Ġc ase
ĠM iss
Ġlo c
Ġc ross
ow er
Ġlea st
Ġt ast
m ing
Ġde pos
Ġch oose
Ġproble ms
Ġs we
Ġp ie
m b
Ġgrad u
Ġc ustom
Ġspea king
Ġyou ng
Ġquest ions
on t
Ġon ce
Ġcould n
Ġtra vel
il ity
Ġf id
ĠS h
Ġbo x
Ġfid get
Ġqu ick
Ġbeg in
Ġsha ll
lle ge
us h
Ġt ired
ĠAmeric an
Ġmaj or
Ġp aper
Ġs ide
Ġres p
Ġpres ent
Ġcou ple
ra w
ou ched
ĠCh rist
Ġto ur
Ġcom es
Ġ2 0
Ġs im
g ot
Ġwork ed
Ġp ur
ell ent
s w
Ġal ong
Ġst ore
W ould
Ġd a
Ġquest ion
Ġf if
Ġd uring
Ġan sw
Ġbook s
Ġt ears
c ess
h ip
Ġbu ild
Ġt est
Ġac cept
Ġpart ic
Ġs har
Ġt ried
Ġre port
Ġcont ract
Ġsy ll
Ġvac ation
Ġexerc ise
Ġpro gram
Ġwin ter
Ġfin ished
Ġ ed
Ġs ays
Ġm ess
e c
Ġpro f
Ġsm o
vel op
han g
Ġfore ign
b and
Ġpop ular
Ġc a
Ġs n
Ġ1 5
p eci
Ġneed s
Ġch ick
re am
und red
l ips
Ġqu iver
Ġc ent
Ġit s
Ġsyll able
Ġwra pped
Ġw ine
y s
we en
it c
Ġsee king
Ġwe ight
ou p
Ġlist en
Ġb ott
Ġpass port
Ġwonder ful
Ġ '
Ġl ess
Ġcount ries
sh ould
u le
Ġar t
Ġwho le
Ġw om
re t
Ġ i
Ġc ertainly
Ġg if
Ġsa le
Ġflo or
l ess
is ion
peci ally
g s
x i
Ġbet ween
id er
ĠN ice
en ch
Ġsu n
Ġ es
Ġ (
Ġkind s
Ġp ast
Ġstr ong
es ides
Ġn ails
c ent
ie ld
Ġread ing
Ġrece ive
Ġbur ning
ĠR ight
Ġsl ump
Ġins ur
Ġwor d
Ġl a
Ġdown cast
should ers
Ġsy st
Ġwith out
ĠS ome
Ġar ri
Ġshar p
res h
n ess
Ġf a
Ġp ost
ĠO n
Ġf oot
ĠAl right
ol og
ĠV ery
Ġdep end
Ġall ow
Ġh undred
ĠAmeric a
Ġp ot
Ġco llege
ang u
Ġdepos it
Ġg i
Ġchan ce
Ġf it
Ġplan ning
c u
Ġmove ments
Ġsal ary
Ġsing le
os p
ĠJ an
Ġout side
Ġplay ing
Ġsc hed
ĠC om
i ents
Ġm il
Ġe ff
Ġsupp ose
Ġstud ent
Ġh us
Ġhus band
Ġtr ouble
Ġhon est
v ies
Ġr ate
ver t
Ġd ance
Ġp acing
itc hen
c le
j aw
s ol
Ġatt end
Ġtight ens
Ġk itchen
ic t
Ġe ither
ate ly
Ġwind ow
sol ute
i b
z y
he ad
Ġansw er
m an
Ġmo vies
Ġchick en
Ġfor get
er ve
Ġh old
Ġsl ouched
Ġe m
ĠP er
Ġlo se
Ġpal ms
........ ........
Ġgr it
te eth
Ġf ig
Ġjo in
Ġte mp
Ġthir ty
Ġm en
ĠY ork
Ġroom s
ĠJ ack
Ġpr act
Ġp ri
Ġli k
Ġpartic ular
us s
oll ow
solute ly
C ould
i er
Ġsk ill
Ġy eah
Ġsyst em
Ġty pe
Ġmach ine
Ġs ister
Ġo pp
Ġst iff
Ġtw enty
Ġc atch
Ġrec ently
Ġhat e
Ġtra ffic
Ġask ed
Ġinsur ance
ĠT ell
Ġse ven
ĠD e
Ġcons ider
Ġcross ed
f ists
Ġcl ench
Ġl angu
W here
Ġm other
Ġpro v
Ġes pecially
ous and
Ġpr ices
Ġper cent
Ġsh oes
Ġs ound
Ġon es
Ġsp orts
ĠL ond
Ġgood s
Ġsomet imes
ĠLond on
Ġten se
Ġprep are
ha ps
Ġm ag
Ġf resh
ci al
r al
Ġprom ot
ing s
Ġintern et
ĠH a
g ed
Ġs ick
la in
Ġwant s
Ġlove ly
Ġexc ellent
Ġtot al
Ġth ousand
Ġd ouble
ar ch
Ġfor got
Ġme ans
Ġapp re
Ġt akes
en cy
Ġwonder ing
Ġde l
Ġg en
Ġsty le
Ġappre ci
Ġa w
Ġg ames
Ġwait ing
Ġp ub
Ġpl ans
at or
Ġ âĢ
Ġrun ning
Ġmove ment
Ġ Z
ak en
Ġlot s
Ġsur pr
re nt
Ġb or
ĠL i
Ġperson al
c ause
Ġde f
Ġsh ir
Ġwatch ing
Ġa ct
Ġc ool
Ġon line
m as
Ġqual ity
Ġc ra
Ġfin ish
p ect
Ġwe lcome
Ġbr other
et s
Ġwr iting
Ġstud ents
Ġok ay
T h
f ast
ĠS ir
ir on
Ġcomp an
un g
Ġf all
ĠA cc
Ġcon ven
iv es
Ġan n
Ġdo cu
A nd
ĠMon day
Ġm adam
Ġh ol
Ġlea ving
ac es
Ġs at
Ġdisc uss
Ġe ight
ĠIn tern
Ġext ra
Ġt aken
Ġbl ack
Ġany one
Ġpa id
ĠS omet
Ġclass es
ĠP e
Ġc up
ĠS ounds
ĠAf ter
t on
Ġm ine
ĠBe cause
ĠE x
Ġw he
Ġpro ject
Ġm id
ĠP ro
ĠR o
Ġcle ar
r at
Ġcl ose
ĠChrist mas
ort un
Ġf ather
Ġwh ite
Ġgif t
i um
ĠA h
Ġcompan ies
ut ion
ĠAny thing
Ġbo y
Ġticket s
Ġkid ding
Ġkid s
Ġtrans fer
Ġc at
Ġhe av
Ġf ix
Ġf ollow
Ġbreak fast
in ite
ress ed
Ġcomple te
Ġc op
Ġen v
Ġresp on
Ġaf f
cri pt
Ġapp lic
tur es
Ġlate ly
Ġve get
Ġsome where
ash ion
ĠAb out
e ad
Ġli br
Ġdisc ount
Ġstudy ing
Ġcondition s
ĠG o
Ġt reat
Ġele ct
ha i
ul ations
Ġte le
Wh y
ĠB ob
Ġf u
Ġwor ried
Ġconven ient
ĠT ake
Ġsa ve
Ġstu ff
Ġpleas ure
I f
l and
Ġexc ited
c on
Ġbuild ing
Ġa head
Ġb all
W ell
ount ain
Ġ3 0
Ġbed room
Ġsw im
ed ding
Ġs ent
Ġto wn
k en
Ġgo es
Ġb ath
Ġf urn
Ġper form
ac he
Ġlibr ary
ant s
Ġdes ign
ĠCom p
m es
Ġm ail
n ot
ĠMr s
o ve
Ġv ar
Ġfr ont
Ġte ch
Ġs on
Ġst ra
han ge
ab les
Ġres ume
Ġhand le
ast ic
u it
ĠJ im
Ġsched ule
Th is
Ġheav y
m e
e es
Ġst ation
Ġde velop
s on
Ġf ield
ull y
5 0
Ġw edding
Ġc oun
Ġp air
Ġo h
Ġro ad
Ġad vert
Ġdire ct
e ed
Ġa ut
o ver
ter s
Ġdo or
Ġbec ome
Ġcl ients
Ġm atch
Ġda ught
ĠT w
ab y
Ġph ot
Ġh ig
Ġappreci ate
Ġe v
Ġor d
Ġdri ving
Ġcoll ect
Ġde g
e ms
ir m
Ġso l
Ġnews p
c ol
at ive
Ġh or
Ġbo ard
Ġd ro
id ing
el come
Ġcook ing
Ġprof ess
ĠS te
ĠLet s
Ġst ep
Ġfam ous
Ġl aw
l s
Ġke y
Ġbl ue
Ġw all
er ing
Ġcur rent
Ġadd ress
Ġcho ice
Ġare a
ĠS p
Ġsu per
Ġlong er
Ġplan e
ĠB esides
Ġopp ortun
ĠS und
Ġtast e
Ġg one
Ġam ount
inite ly
W elcome
Ġv ot
ĠT ues
Ġcan not
Ġen g
ĠTues day
m a
ie w
Ġeff ect
Ġst ar
era ture
m ore
Ġfoot ball
Ġv iew
Ġar r
Ġsk in
ap an
Ġgen er
Ġme m
Ġme at
ar a
n ect
Ġh ist
Ġco ver
Ġass ist
ĠB ill
ou d
ĠI D
or ies
Ġinst ead
Ġf air
ĠT ai
Ġf ashion
Ġmo d
ĠJ apan
Ġexc hange
ĠUn iversity
Ġmag az
I B
Ġ "
Ġed uc
Ġbr and
Ġman age
ĠSund ay
o e
Ġb en
ĠM a
Ġfil m
Ġ .
Ġluck y
Ġ z
Ġto r
Ġpri v
Ġdaught er
r ing
ĠM ike
Ġsh ip
Ġtech n
3 0
Ġfin ally
Ġdec ide
lf riend
Ġget s
Ġs and
Ġgirl s
Ġfor ward
Ġst ock
Ġcam p
Ġde ar
Ġreg ular
Ġf ish
Ġso ft
d le
t ed
Ġdes k
Ġgir lfriend
osp ital
Ġpub lic
Ġenv iron
Ġd am
Ġc as
Ġb reat
Ġexc iting
Ġab solutely
Ġaff ord
cript ion
Ġpl aces
Ġno se
Ġne igh
Ġ1 00
Ġdiffere nce
si b
Ġemploy ees
Ġneigh b
ĠW ith
Ġd iet
Ġg row
Ġany way
Ġam az
ĠR IB
Ġlangu age
Ġs oup
av id
Ġben ef
ic ed
Ġus ing
Ġquick ly
Ġs ense
Ġmed ic
Ġenviron ment
Ġrec ord
Ġl u
Ġcar s
Ġgr and
Ġreg ist
Ġm ist
Ġint ro
n ad
Ġtra ve
olog y
Ġcra zy
m it
Ġl ow
ha ll
ant astic
Ġfr uit
f ully
s es
Ġha nds
ĠM ost
Ġlearn ed
Ġreceive d
Ġf re
M y
Ġwor th
ĠNot hing
te en
ord ing
Ġp ress
ĠThe se
Ġsp ace
Ġsu cc
ĠSomet imes
Ġsucc ess
Ġeat ing
Ġ5 0
u g
ce l
Ġinv est
Ġadv ice
Ġqu iet
is f
itt ing
Ġ2 00
Ġdepend s
ĠPer haps
el s
re ct
ong rat
d en
Ġyour s
Ġhol iday
r ation
Ġp oll
Ġshould n
Ġtr ad
b s
g an
i or
Ġs ort
Ġfl ow
Ġlear ning
Ġcl im
Ġamaz ing
ĠD ad
o c
Ġse mes
ne y
Ġear li
Ġcoun ter
m o
Ġas king
Ġcl ub
Ġgu est
Ġres ult
hang hai
Ġsat isf
Ġtor nad
ĠH ot
ĠB rown
Ġkn ew
Ġapplic ation
Ġstra ight
p l
Ġty p
Ġte ach
Ġwhe ther
Ġd iv
XXXXXXXX XXXXXXXX
Ġwom an
T here
c ha
g o
g y
g es
Ġgl ass
w an
ĠW ang
Ġit ems
ic le
Ġbuy ing
Ġrel ations
W hen
c hes
Ġav o
Ġperform ance
Ġsemes ter
an cy
ag ed
Ġimp ro
Ġloc al
M r
Ġl at
Ġconc ert
Ġf ly
t o
Ġnot ice
Ġne cess
ĠU S
w hat
Ġt re
ĠA ust
Ġsee ing
Ġp an
Ġlo an
Ġenjoy ed
- -
m in
on y
Ġn erv
ver n
Ġpromot ion
Ġm ountain
Ġb aby
Ġh ospital
ĠM s
Ġveget ables
ĠTai wan
Ġsp ent
Ġany more
Ġdri ver
ongrat ulations
Ġt all
ĠG od
Ġt ou
Ġde lic
Ġair port
c om
le t
ro ad
Ġrece ip
Ġpie ce
Ġg reen
Ġh u
ĠC o
Ġexam ple
Ġsub way
Ġp o
Ġn ine
Ġcour ses
Ġe gg
Ġr ide
Ġjob s
Ġcheck ing
Ġsec ret
Ġmen u
ĠC l
ri b
Ġcont act
Ġnewsp aper
Ġm ention
Ġbl ood
Ġpark ing
er n
ĠE ach
Ġhig her
Ġs ci
Ġim m
Ġgi ven
ĠPe ople
ĠComp any
y m
ĠH mm
Ġex cept
Ġbe ef
ur s
Ġs ong
Ġst e
ĠB r
ition al
Ġpriv ate
Ġpack age
ĠW ait
Ġs er
Ġh i
Ġdet ails
Ġprov ide
t he
ĠW or
Ġother s
Ġta xi
Ġwar m
Ġcon nect
Ġguy s
ĠW as
il ities
Ġpic ture
Ġswe et
ĠAust ral
Ġg ave
ic ally
Ġche ap
Ġnerv ous
y e
ĠT r
Ġbe ach
cri be
Ġlat est
ĠG r
Ġpay ment
Ġ ice
Ġf antastic
Ġg ym
Ġh ung
Ġ1 9
ang er
Ġcor rect
Ġs our
ĠIntern et
p or
is ing
ĠB ar
Ġcl ient
ren ch
Ġg ra
ĠM om
i ture
un k
ĠJan e
ent ial
Ġle ad
Ġlik ed
Ġcomplete ly
Ġintro du
c he
Ġpl enty
ert ific
Ġmove d
Ġfam il
ĠIs n
Ġhealth y
Ġarr ange
ic a
ĠM any
Ġal right
ile d
h ow
gg age
Ġdef initely
Ġins ide
Ġfu ture
e xt
Ġcomput ers
Ġatt ract
i od
ro l
Ġper iod
Ġmid dle
Ġlu ggage
m y
Ġatt ention
Ġc e
ĠM ac
anc es
us an
Ġor gan
Ġv al
Ġfin al
Ġcost s
Ġbott le
ĠSt ates
Ġcustom ers
Ġearli er
Ġan im
Ġde li
Ġfun ny
con om
Ġ ill
Ġc ap
ĠS hanghai
Ġtrain ing
Ġtou ch
T hat
t le
ea k
i ble
Ġl and
Ġre t
Ġme al
Ġpro per
Ġmess age
l ves
t op
Ġdrink s
Ġbro ke
ĠS ee
Ġgo vern
qu are
Ġfig ure
Ġo b
if ied
ĠDid n
The y
Ġhur ry
Ġswim ming
Ġco at
ĠF rench
Ġcont in
Ġcomp et
ud e
Ġcor ner
Ġdec ision
Ġrequ ired
Ġfurn iture
Ġh it
Ġwith in
Ġpr int
in a
Ġword s
a ff
Ġ Q
es tern
ore d
Ġsmo king
Ġj u
ĠD an
ip e
Ġbr ought
Ġhung ry
Ġplay er
Ġacc ident
Ġpol ice
Ġcomfort able
Ġdeli very
ot s
en ny
ĠD avid
Ġreceip t
ĠSte ven
Ġp at
ly mp
pp y
ur g
Ġo cc
Ġdo g
Ġhur t
Ġrequ ire
h ib
Ġpur cha
s et
Ġs il
ĠM ar
Ġchar ac
Ġsn ow
Ġdocu ments
Ġc art
Ġd ry
ĠG et
Ġtemp erature
Ġm ater
Ġc ream
Ġr ound
Ġover time
ĠEvery thing
Ġf at
ĠS outh
Ġk ill
ĠWe lcome
ess ert
Ġcar ry
Ġbox es
Ġimpro ve
m ail
Ġmach ines
Ġind ust
ĠTw o
ĠHot el
Ġsp icy
Ġmo der
Ġtell ing
ion al
Ġplay ers
Ġflow ers
i qu
ere nce
Ġche aper
Ġshir t
Ġf ur
ĠO lymp
ĠWh ite
i o
Ġse ction
Ġem ails
Ġhist ory
H ere
d o
g age
ĠB oth
iv al
Ġtornad o
Ġd r
Ġd essert
Ġop in
ur es
Ġh op
Ġcomm un
Ġcop y
ĠB l
Ġteam s
Ġcho col
Ġe qu
Ġnight s
Ġsal ad
Ġw ays
Ġc al
Ġd est
Ġl ic
Ġst ress
h ind
se lves
a le
Ġs ight
Ġc ake
Ġp ounds
Ġha ng
ut h
Ġpol icy
Ġbe er
Ġst om
ĠO r
b ed
Ġwith d
Ġresult s
Ġcam era
Ġdelic ious
Ġm ot
ast er
Ġpot ential
Ġnecess ary
O h
or ge
Ġse a
Ġwork s
are d
Ġcard s
ĠAf ric
re st
Ġw at
ĠM ic
Ġco l
Ġf ire
Ġe ye
Ġbe hind
Ġtr ade
Ġfl at
og ra
Ġskill s
g ing
Ġhe art
Ġpa le
ard en
Ġgradu ate
re w
Ġst aff
Ġp ull
................ ................
Ġ2 5
Ġsim ple
Ġgovern ment
Ġl ab
gr ound
urs day
ap ers
g al
s ha
Ġop er
air s
Ġprom ise
Ġthir d
Ġeduc ation
ff ice
ĠSt reet
Ġwithd raw
w are
Ġd ark
Ġd ancing
Ġse ason
Ġab road
ck s
Ġdeg ree
Ġopportun ity
Ġmedic ine
z en
Ġd ream
Ġro ll
Ġfif teen
in ation
Ġexp lain
Ġlook ed
ĠP et
Ġstand ard
ĠA d
Ġtw ice
Ġintern ational
Ġf ight
ed i
Ġk il
ĠC he
Ġmoder n
Ġstay ing
Ġseat s
Ġcent er
Ġfur ther
n is
on es
Ġst ate
Ġadvert ise
n el
Ġh um
Ġr ing
Ġfif ty
Ġb and
Ġn on
ĠH ong
ĠS usan
ĠG ive
Ġpres cription
Ġju ice
e en
le y
Ġcl ock
Ġagain st
m arket
ou b
le br
ell ed
Ġsp ec
iss ion
Ġbor ing
Ġce lebr
et y
Ġchan ged
la st
Ġinv ite
Ġpro cess
Ġdrink ing
Ġter ms
ĠM ark
Ġ1 6
Ġbro ken
Ġfind ing
Ġsay ing
Ġmost ly
Ġturn ed
Ġpress ure
Ġg as
ĠTh ursday
Ġinst ru
1 0
Ġre du
ĠM adam
os es
iz z
Ġreg ister
ph one
Ġmil es
Ġmanage ment
d e
ĠS hall
Ġserv ices
Ġmil k
Ġfl u
ĠAustral ia
ie l
b it
Ġr id
ĠC ongratulations
Ġvis a
k et
t ain
id ence
ĠL in
ĠAny way
Ġopin ion
i pp
Ġt ie
Ġso ld
Ġsp are
Ġwas hing
Ġapp ro
ĠUn ited
ĠAfric a
Ġta x
Ġwom en
Ġeng ine
p ed
on na
Ġc ell
Ġex hib
ĠE ven
Ġhome work
Ġinc re
Ġpic tures
Ġsuper market
Ġpoll ution
p ri
Ġd raw
Ġp ar
Ġis s
Ġh ob
Ġcont rol
f ive
o res
v ious
est ival
Ġten nis
Ġc able
Ġnot iced
Ġtr uth
Ġcare ful
Ġmiss ed
Ġn atur
Ġr ush
Ġsu p
Ġacc ording
Ġtrans port
Ġship ment
Ġbenef its
b ook
i ar
Ġdes cribe
Ġcustom er
Ġf ile
ver s
ĠU m
Ġn orm
un ately
Ġcheck ed
2 0
Ġb an
Ġear th
Ġlic ense
f riend
z e
Ġm ood
âĢ Ŀ
ĠD ay
Ġdis hes
Ġanim als
Ġf ac
Ġg ar
Ġwe bs
ĠG reen
Ġth row
ĠSh ould
Ġh ous
Ġpract ice
it ive
ill y
Ġsp eed
Ġsurpr ised
ĠO ffice
Ġd ish
Ġsm ell
Ġide as
um n
Ġpay ing
Ġke pt
ĠAn n
Ġsour ce
Ġp en
Ġ1 8
Ġra ise
Ġhead ache
Ġcomm on
Ġcamp us
g est
Ġb orrow
Ġl ap
Ġbr ight
Ġop t
Ġfood s
Ġbegin ning
ertific ate
Ġg onna
Ġany where
bo ard
Ġchocol ate
ĠM ake
Ġnot e
ĠG u
Ġsupp ort
Ġa p
Ġw ake
in ed
Ġg arden
ĠC ar
Ġup set
by e
Ġsol ve
k es
ĠT a
ĠL ast
Ġarri ve
Ġmist ake
Ġw alking
Ġsomet ime
oo f
ĠM an
us ed
Ġbor n
Ġbath room
Ġc row
Ġr out
Ġoff ic
Ġv ide
Ġins pect
fort unately
ĠTo day
Ġallow ed
Ġcrow d
L et
Ġb lock
Ġd ra
Ġo il
are t
Ġbus es
Ġfin an
B A
y ing
Ġst ory
Ġgr ound
Ġann oun
Ġassist ant
g ar
ll en
' .
l im
an na
im um
Ġne ck
ĠHow ever
ea g
Ġsha re
Ġneed ed
iz ed
Ġro b
Ġhapp ens
Ġen er
Ġpass ed
W ill
o ice
Ġt ur
ĠY uan
Ġh oney
Ġbu d
Ġper f
Wh o
Ġrespon sible
Ġrelations hip
Ġimm edi
f l
Ġde ad
Ġar rest
ving s
Ġbre ad
Ġlik es
Ġbreat h
Ġm ill
Ġwill ing
ĠTh ose
Ġcolor s
Ġbas ket
ĠAcc ount
% .
Ġp ort
ĠC or
ul es
ĠL ike
l ace
Ġl oud
Ġre se
Ġshow s
Ġmarket ing
Ġconc ern
Ġent er
Ġe conom
Ġegg s
Ġsci ence
or th
Ġp last
il t
Ġfe es
ĠCan ad
Ġ4 0
Ġinclud e
Ġstom ach
ir ing
Ġcl osed
Ġus ual
Ġsk ir
Ġform al
Ġsub ject
Ġgi ving
p les
Ġb ow
Ġn et
Ġcoll eag
Ġmo ving
Wh ich
Ġexpect ed
Ġpie ces
ĠB ank
ĠP ark
c ut
u ation
ĠY ear
ĠH u
Ġal one
Ġclim b
ogra ph
Ġ urg
Ġme mb
Ġ1 1
Ġlight s
ward s
led ge
ĠOn ly
Ġdro p
Ġneighb or
Ġmemb ers
Ġwor se
ĠP C
Ġindust ry
o ff
ĠN ext
ĠE ur
Ġinclud ing
h ood
Ġapp li
Ġsmo ke
Ġla und
Ġb at
ac hes
Ġgradu ated
izz a
Ġc ul
is hing
Ġn ut
Ġqu it
Ġpack ing
Ġhur ts
Ġdiv or
f ess
Ġb al
ĠS ince
Ġdec la
ĠFr om
Ġinclud ed
Ġa ge
ĠH ar
ell ow
Ġwas h
Ġgr oup
Ġbag s
Ġmagaz ine
Ġvide o
Ġfinan cial
l t
Ġw ood
Ġbook ed
Ġrem ind
Ġinv ited
Ġbag gage
Ġboy friend
Ġlap top
Ġs itting
Ġto w
Ġd i
Ġl ower
loy ment
Ġpurcha se
Ġb other
ĠE xcuse
Ġagree ment
Ġc ertain
ĠP re
Ġback ground
Ġche ese
Ġfamil iar
ĠI nd
er ry
Ġp ool
Ġse le
Ġplay ed
Ġinv ol
Ġshir ts
Ġrespon sib
Ġwebs ite
Ġlaund ry
n ers
Ġse arch
ĠTh ree
Ġf la
ind y
Ġstart ing
ĠâĢ ľ
Ġsurpr ise
Ġc hat
Ġb ase
Ġp ower
Ġschool s
Ġfact ory
Ġs quare
Ġm ix
ack s
Ġprodu ce
Ġspec ific
o le
Ġd anger
Ġp ity
ĠD ep
ct ions
Ġim ag
Ġbig ger
Ġimp ressed
Ġsell ing
Ġcha llen
Ġtele phone
Ġmot or
ur ch
ĠC al
la im
Ġknow s
il ar
Ġar m
Ġswe ater
Ġprepare d
Ġhor rible
i als
r or
Ġb ra
ĠS e
ĠD r
am b
Ġapp et
Ġres erve
Ġsha pe
Ġmar ry
r ant
or n
Ġrel ig
Ġtrad itional
g ency
i pped
y ear
Ġc ities
ĠA ir
Ġde m
Ġsuggest ions
ve y
Ġcan d
Ġsp ort
Ġpr ot
Ġmonth ly
Ġarri ved
ut y
ĠS ara
Ġsp ring
ĠP a
ĠEx actly
ha nd
Ġadv ance
N ow
Ġ est
Ġc ents
al ian
ro y
un e
Ġstay ed
Ġbott om
Ġplast ic
Ġr ange
ri ger
Ġmat h
Ġref riger
Ġem ail
Ġattract ive
n ew
Ġf le
an e
ist en
Ġag re
Ġrese arch
a king
d a
ĠA r
ind a
Ġhas n
ĠK e
Ġdocu ment
Ġavo iding
y ou
Ġc ig
itt en
Ġstu p
Ġexperi en
Ġaut om
Ġguest s
M ary
Ġc ere
ĠR es
Ġt end
Ġan g
ĠA pp
Ġr ules
ĠC ity
Ġche m
Ġte xt
Ġlea ves
Ġnatur al
Ġf ried
Ġdo gs
Ġqu ar
Ġsc en
Ġeas ily
ĠBar b
Ġstup id
Ġw anna
Ġm ark
Ġb ike
ve red
Ġco ck
Ġco vered
ĠJ ul
Ġpoint s
Ġvar ious
sha king
fess or
L ook
n ight
Ġ ...
Ġp et
Ġg ives
Ġr ice
ĠJ enny
Ġadv ant
ĠEvery one
Ġloc ated
Ġgener al
Ġcas es
it ation
Ġd ad
Ġdoll ar
Ġtechn ology
Ġwat ched
a h
Ġr ates
ĠS ep
os h
Ġstu ck
Ġwr itten
Ġmar ri
ĠRo om
v ision
Ġwe ak
Ġr om
Ġch op
Ġvis iting
Ġyoung er
p ose
Ġl it
ad ays
Ġkeep ing
Ġeas ier
Ġdire ctor
Ġt ough
Ġw rink
al ent
ĠC indy
ĠJ ason
Ġwar rant
Ġfly ing
por ation
Ġdo zen
Ġsp o
nt own
Ġun its
Ġkeep s
Ġmed ium
Ġexhib ition
C ome
P lease
ur ed
ĠO ct
Ġevery where
Ġbu ilt
Ġopen ing
Ġold er
Ġsecret ary
c ase
Ġprodu ction
Ġlisten ing
Ġprofess ional
Ġcolleag ues
c over
Ġp ush
Ġfe et
Ġcare er
mo king
Ġcrowd ed
l ight
Ġa ch
Ġm all
Ġhe at
Ġknow ledge
Ġfriend ly
Ġpain t
Ġpleas ant
Ġact iv
Ġelect ric
Ġdevelop ed
Ġ ut
if y
Ġfe ver
Ġgu ide
Ġbig gest
Ġmagaz ines
Ġrefriger ator
o ber
ur ity
Ġb rown
Ġsu its
Ġle vel
Ġph ys
Ġpain ting
ĠâĢ Ķ
ĠBl ack
e al
g ain
m et
n ic
r on
Ġfor ty
Ġr ad
Ġst ories
Ġcall s
Ġintrodu ce
an ish
ĠM mm
Ġno ise
Ġevery body
Ġconf erence
Ġfa ult
Ġvot e
ĠG er
em p
Ġregist ered
Ġwrink les
o an
ha el
Ġoff ense
Ġen c
Ġp apers
at ives
Ġr an
Ġclean ing
Ġcha mp
ĠJapan ese
Ġbasket ball
emp loyment
n es
z z
Ġ1 4
ĠK ing
Ġtele vision
ĠSp anish
Ġt ill
ow ntown
ĠL e
ĠP ar
Ġsc ore
Ġord ered
Ġb on
en g
ed nes
ĠW ednes
itt ed
Ġcommun ic
ĠWednes day
i ence
u cy
or ter
Ġab ility
ive red
Ġch urch
Ġskill ed
Ġdel ivered
Ġmod el
Ġhu ge
Ġst am
Ġend ed
Ġincre ase
Ġcig aret
T hank
Ġ X
Ġc ine
ll o
Ġd ue
is es
Ġan t
Ġstr ange
Ġsit uation
ĠMon ica
Ġbud get
d den
Ġcan cel
Ġsu dden
Ġcar p
Ġconf irm
ict ion
Ġvar iet
Ġregist ration
c er
e orge
s c
Ġw estern
ĠT ra
Ġj our
Ġsu gar
Ġsm art
Ġad m
Ġsc ared
ĠAl so
Ġsur f
pri l
Ġs am
re es
Ġw ast
Ġd oub
is on
ĠM ore
h y
Ġf ea
ĠT e
ĠA pril
Ġcomp lic
Ġno vel
ĠU h
XXXXXXXXXXXXXXXX XXXXXXXXXXXXXXXX
Ġimmedi ately
Ġmarri age
2 5
Ġs erve
Ġre new
Ġj ump
Ġopen ed
ĠEng land
Ġexc use
ĠK ong
Ġve h
Ġda ily
ĠEur ope
Ġach ieve
Ġc ertificate
ver age
ĠN ever
Ġsp ot
Ġfe lt
Ġag es
Ġro ck
Ġcur ls
Ġcr it
Ġdecla re
ĠOct ober
2 9
l ip
m en
w or
Ġ et
it ch
ad ing
ĠC on
ĠCanad a
w ise
ar ling
ack et
Ġevery day
Ġtalk ed
ĠPa ul
Ġst ores
ci ent
Ġaccount ing
Ġfast er
Ġperf ume
Ġurg ent
ĠSep t
p ar
Ġp izza
ar ant
Ġhelp s
ĠE xc
Ġv oice
Ġsk y
Ġhair cut
Ġprogram s
Ġdam age
Ġdanger ous
m osp
al og
Ġas leep
Ġhelp ing
Ġhelp ful
ard on
Ġsa vings
Ġwar ning
Ġsuit able
Ġocc as
mosp here
Ġf irm
Ġme als
ĠDo ctor
ress ive
Ġun employment
Ġsim ilar
Ġca ught
re me
ĠR em
Ġwear ing
Ġtrave ling
ĠWor ld
Ġagre ed
in ter
Ġc ause
Ġd owntown
Ġp age
Ġli ves
ĠS u
am ed
Ġat mosphere
Ġam ong
ol ars
act ion
ĠAl ice
Ġtrave ll
i res
Ġw et
at ic
ot e
Ġr oses
Ġj am
ill s
um s
Ġhigh ly
Ġs ne
ir ty
Ġhelp ed
Ġsim p
Ġdest roy
Ġbon us
Ġsne ering
Ġg lo
Ġli ps
Ġwas hed
Ġgot ten
Ġtra ins
ĠAn na
Ġpresent ation
ĠIntern ational
Ġsand w
Ġo we
Ġhim self
Ġcharac ters
iqu e
v in
Ġf ell
Ġe ffic
ĠH oney
Ġexp ort
Ġac ross
Ġtot ally
Ġsuccess ful
ĠPet er
h ouse
Ġf are
ĠW ere
at t
Ġse par
Ġcl os
Ġsmall er
Ġinspect ion
ĠPre tty
Ġc ir
ĠH is
Ġgu arant
Ġclass ical
Ġnear ly
Ġnear by
Ġhu h
ĠMic hael
Ġang ry
Ġcine ma
ĠSept ember
1 00
I n
c l
Ġc laim
ull s
Ġcent re
Ġval ue
Ġsimp ly
Y our
Ġsec urity
ren cy
Ġfil ms
Ġart icle
Ġcat alog
Ġphot os
Ġret ire
Ġadvertise ment
er ved
ĠL isten
ak er
Ġter r
ĠAb solutely
Ġprep ar
Ġgradu ation
ĠDe velop
ĠPar is
Ġcomplic ated
in ally
is a
ĠC ent
ĠE m
el ve
we ight
Ġrep elled
Ġfig ures
ĠZ hang
ĠPro bably
cover ing
is le
Ġor ig
Ġman u
Ġle ather
Ġcontin ue
Ġcand id
. )
d s
l ines
er al
Ġf ed
ĠT ed
Ġh ire
ĠJ u
