{"<pad>":0,"<bos>":1,"<eos>":2,"<turn>":3,"<unk>":4,"!":5,"\"":6,"#":7,"$":8,"%":9,"&":10,"'":11,"(":12,")":13,"*":14,"+":15,",":16,"-":17,".":18,"/":19,"0":20,"1":21,"2":22,"3":23,"4":24,"5":25,"6":26,"7":27,"8":28,"9":29,":":30,";":31,"<":32,"=":33,">":34,"?":35,"@":36,"A":37,"B":38,"C":39,"D":40,"E":41,"F":42,"G":43,"H":44,"I":45,"J":46,"K":47,"L":48,"M":49,"N":50,"O":51,"P":52,"Q":53,"R":54,"S":55,"T":56,"U":57,"V":58,"W":59,"X":60,"Y":61,"Z":62,"[":63,"\\":64,"]":65,"^":66,"_":67,"`":68,"a":69,"b":70,"c":71,"d":72,"e":73,"f":74,"g":75,"h":76,"i":77,"j":78,"k":79,"l":80,"m":81,"n":82,"o":83,"p":84,"q":85,"r":86,"s":87,"t":88,"u":89,"v":90,"w":91,"x":92,"y":93,"z":94,"{":95,"|":96,"}":97,"~":98,"¡":99,"¢":100,"£":101,"¤":102,"¥":103,"¦":104,"§":105,"¨":106,"©":107,"ª":108,"«":109,"¬":110,"®":111,"¯":112,"°":113,"±":114,"²":115,"³":116,"´":117,"µ":118,"¶":119,"·":120,"¸":121,"¹":122,"º":123,"»":124,"¼":125,"½":126,"¾":127,"¿":128,"À":129,"Á":130,"Â":131,"Ã":132,"Ä":133,"Å":134,"Æ":135,"Ç":136,"È":137,"É":138,"Ê":139,"Ë":140,"Ì":141,"Í":142,"Î":143,"Ï":144,"Ð":145,"Ñ":146,"Ò":147,"Ó":148,"Ô":149,"Õ":150,"Ö":151,"×":152,"Ø":153,"Ù":154,"Ú":155,"Û":156,"Ü":157,"Ý":158,"Þ":159,"ß":160,"à":161,"á":162,"â":163,"ã":164,"ä":165,"å":166,"æ":167,"ç":168,"è":169,"é":170,"ê":171,"ë":172,"ì":173,"í":174,"î":175,"ï":176,"ð":177,"ñ":178,"ò":179,"ó":180,"ô":181,"õ":182,"ö":183,"÷":184,"ø":185,"ù":186,"ú":187,"û":188,"ü":189,"ý":190,"þ":191,"ÿ":192,"Ā":193,"ā":194,"Ă":195,"ă":196,"Ą":197,"ą":198,"Ć":199,"ć":200,"Ĉ":201,"ĉ":202,"Ċ":203,"ċ":204,"Č":205,"č":206,"Ď":207,"ď":208,"Đ":209,"đ":210,"Ē":211,"ē":212,"Ĕ":213,"ĕ":214,"Ė":215,"ė":216,"Ę":217,"ę":218,"Ě":219,"ě":220,"Ĝ":221,"ĝ":222,"Ğ":223,"ğ":224,"Ġ":225,"ġ":226,"Ģ":227,"ģ":228,"Ĥ":229,"ĥ":230,"Ħ":231,"ħ":232,"Ĩ":233,"ĩ":234,"Ī":235,"ī":236,"Ĭ":237,"ĭ":238,"Į":239,"į":240,"İ":241,"ı":242,"Ĳ":243,"ĳ":244,"Ĵ":245,"ĵ":246,"Ķ":247,"ķ":248,"ĸ":249,"Ĺ":250,"ĺ":251,"Ļ":252,"ļ":253,"Ľ":254,"ľ":255,"Ŀ":256,"ŀ":257,"Ł":258,"ł":259,"Ń":260,"Ġt":261,"ur":262,"Ġa":263,"tur":264,"in":265,"turn":266,"Ġ<":267,"he":268,"ou":269,"Ġs":270,"re":271,"ĠI":272,"Ġw":273,"ha":274,"Ġy":275,"Ġm":276,"on":277,"Ġthe":278,"Ġc":279,"Ġb":280,"Ġyou":281,"er":282,"Ġto":283,"ing":284,"ll":285,"it":286,"Ġf":287,"Ġd":288,"or":289,"es":290,"is":291,"an":292,"Ġl":293,"Ġp":294,"en":295,"hat":296,"Ġg":297,"ve":298,"Ġo":299,"ar":300,"om":301,"Ġan":302,"le":303,"Ġn":304,"ow":305,"ed":306,"ĠW":307,"Ġha":308,"Ġin":309,"et":310,"st":311,"at":312,"ay":313,"Ġe":314,"Ġth":315,"Ġit":316,"Ġof":317,"ĠT":318,"Ġis":319,"gh":320,"ot":321,"ic":322,"ke":323,"Ġand":324,"se":325,"Ġre":326,"id":327,"Ġbe":328,"ld":329,"Ġfor":330,"ĠY":331,"âĢ":332,"oo":333,"âĢĻ":334,"our":335,"Ġdo":336,"'s":337,"Ġhe":338,"Ġ*":339,"Ġon":340,"Ġhave":341,"Ġli":342,"ĠH":343,"Ġwe":344,"ut":345,"Ġthat":346,"Ġh":347,"Ġme":348,"ght":349,"ver":350,"out":351,"ion":352,"ac":353,"al":354,"as":355,"ould":356,"Ġare":357,"Ġyour":358,"ent":359,"all":360,"ĠA":361,"Ġr":362,"ell":363,"'t":364,"ĠS":365,"Ġu":366,"Ġst":367,"im":368,"Ġcan":369,"Ġj":370,"Ġne":371,"Ġse":372,"ir":373,"ly":374,"Ġlike":375,"ink":376,"ome":377,"ad":378,"Ġmy":379,"ĠM":380,"ĠWhat":381,"nd":382,"Ġk":383,"Ġgo":384,"ight":385,"ill":386,"ith":387,"ĠO":388,"ĠIt":389,"ch":390,"ĠC":391,"ĠD":392,"Ġthis":393,"Ġwith":394,"Ġab":395,"ant":396,"ood":397,"am":398,"ter":399,"ĠThe":400,"ally":401,"ĠB":402,"ro":403,"ĠYes":404,"ust":405,"Ġex":406,"if":407,"Ġabout":408,"Ġat":409,"Ġso":410,"ĠYou":411,"very":412,"ĠN":413,"la":414,"ct":415,"os":416,"'m":417,"ul":418,"Ġthink":419,"Ġsp":420,"Ġkn":421,"yes":422,"Ġdon":423,"ake":424,"Ġget":425,"Ġmo":426,"ri":427,"ook":428,"han":429,"Ġknow":430,"..":431,"her":432,"Ġsh":433,"ce":434,"Ġwas":435,"th":436,"ide":437,"op":438,"Ġnot":439,"ble":440,"Ġwor":441,"ry":442,"Ġwant":443,"Ġbut":444,"Ġsee":445,"Ġwhat":446,"Ġthere":447,"Ġcom":448,"oun":449,"ĠHow":450,"ice":451,"res":452,"Ġwill":453,"pp":454,"Ġsome":455,"ind":456,"end":457,"us":458,"Ġas":459,"ge":460,"ase":461,"ime":462,"Ġany":463,"Ġor":464,"ation":465,"ĠThat":466,"ea":467,"Ġ1":468,"Ġjo":469,"Ġwould":470,"ere":471,"dy":472,"Ġone":473,"ack":474,"Ġpro":475,"art":476,"Ġexp":477,"Ġal":478,"Ġall":479,"ive":480,"Ġjust":481,"Ġde":482,"ĠL":483,"Ġgood":484,"Ġneed":485,"Ġsu":486,"il":487,"ĠWe":488,"ra":489,"ĠDo":490,"qu":491,"ment":492,"Ġpl":493,"day":494,"Ġhere":495,"est":496,"lease":497,"Ġfr":498,"ture":499,"ark":500,"Ġtime":501,"Ġdid":502,"Ġreally":503,"Ġvery":504,"ure":505,"ong":506,"Ġwh":507,"ress":508,"Ġlook":509,"ast":510,"Ġout":511,"Ġgoing":512,"ile":513,"ess":514,"ate":515,"one":516,"Ġwork":517,"Ġbo":518,"ĠWell":519,"ers":520,"ort":521,"Ġright":522,"Ġam":523,"Ġsm":524,"Ġtoo":525,"ello":526,"Ġup":527,"hen":528,"ig":529,"ck":530,"ĠNo":531,"ine":532,"pos":533,"Ġmu":534,"lp":535,"Ġfrom":536,"ven":537,"ie":538,"ain":539,"ĠOh":540,"Ġhelp":541,"any":542,"Ġmuch":543,"ful":544,"Ġthey":545,"rink":546,"ling":547,"ist":548,"Ġour":549,"ĠP":550,"Ġcomp":551,"Ġco":552,"ear":553,"Ġcl":554,"ard":555,"un":556,"Ġeyes":557,"ning":558,"cy":559,"here":560,"'ll":561,"Ġplease":562,"ĠG":563,"ound":564,"ĠBut":565,"Ġif":566,"ĠF":567,"gr":568,"Ġcon":569,"Ġus":570,"Ġtake":571,"ĠJ":572,"hank":573,"ĠE":574,"Ġ-":575,"posture":576,"Ġfe":577,"and":578,"Ġlight":579,"eyes":580,"Ġqu":581,"Ġbeen":582,"ĠWh":583,"um":584,"el":585,"'ve":586,"ame":587,"Ġlo":588,"ins":589,"Ġoff":590,"Ġint":591,"ree":592,"Ġback":593,"ore":594,"Ġnew":595,"Ġbody":596,"Ġshould":597,"ays":598,"ĠR":599,"hing":600,"Ġnow":601,"Ġag":602,"lax":603,"Ġrelax":604,"ite":605,"king":606,"reat":607,"Ġaf":608,"Ġhow":609,"ep":610,"Ġ12":611,"Ġboun":612,"Ġbouncy":613,"Ġsmile":614,"Ġgot":615,"wide":616,"Ġspark":617,"Ġsparkling":618,"ugh":619,"Ġrelaxed":620,"ity":621,"ĠHello":622,"thing":623,"grins":624,"ression":625,"are":626,"ughs":627,"laughs":628,"nt":629,"row":630,"ick":631,"Ġro":632,"'d":633,"Ġexpression":634,"Ġjoy":635,"Ġjoyful":636,"Ġcrink":637,"Ġcrinkle":638,"Ġthem":639,"Ġv":640,"Ġno":641,"ass":642,"Ġmore":643,"ĠIs":644,"ĠAnd":645,"ies":646,"omet":647,"ount":648,"ap":649,"ace":650,"Ġcould":651,"Ġevery":652,"use":653,"'re":654,"Ġbus":655,"Ġpe":656,"ople":657,"ect":658,"Ġbu":659,"Ġmake":660,"Ġpr":661,"Ġche":662,"ag":663,"ol":664,"ous":665,"Ġhad":666,"irst":667,"Ġover":668,"Ġhas":669,"Ġlot":670,"ek":671,"ĠThank":672,"ms":673,"Ġsa":674,"Ġtw":675,"ĠHe":676,"ĠCan":677,"ĠTh":678,"Ġweek":679,"ish":680,"Ġtoday":681,"Ġpeople":682,"Ġshe":683,"...":684,"Ġtell":685,"der":686,"Ġen":687,"Ġby":688,"Ġsomet":689,"Ġch":690,"Ġwhen":691,"orning":692,"Ġar":693,"Ġtr":694,"ther":695,"Ġsure":696,"act":697,"Ġcome":698,"red":699,"00":700,"Ġher":701,"Ġlong":702,"ĠMy":703,"Ġmorning":704,"Ġyear":705,"ci":706,"Ġsir":707,"Ġwell":708,"Ġthing":709,"ving":710,"ach":711,"Ġcall":712,"Ġgreat":713,"ough":714,"Ġproble":715,"Ġroom":716,"Ġpre":717,"ff":718,"Ġdoes":719,"cc":720,"age":721,"ĠWhy":722,"Ġday":723,"own":724,"Ġfirst":725,"Ġkind":726,"Ġjob":727,"What":728,"ĠCh":729,"able":730,"Ġcour":731,"itt":732,"Ġte":733,"Ġ&":734,"ber":735,"ak":736,"lf":737,"Ġafter":738,"orry":739,"ĠThey":740,"ĠAre":741,"ave":742,"ty":743,"Ġapp":744,"Ġsomething":745,"ually":746,"ĠSo":747,"ip":748,"iff":749,"ĠOK":750,"Ġthen":751,"eah":752,"ich":753,"ĠLet":754,"Ġmany":755,"lo":756,"ary":757,"ĠV":758,"Ġpart":759,"Ġtwo":760,"Ġway":761,"Ġmeet":762,"ĠThere":763,"port":764,"Ġlast":765,"ĠMay":766,"Ġwon":767,"Ġyes":768,"Ġother":769,"Ġbet":770,"Ġdidn":771,"Ġbuy":772,"ĠThis":773,"Ġlet":774,"xt":775,"Ġad":776,"Ġstu":777,"Ġcourse":778,"Ġbr":779,"Ġop":780,"Ġproblem":781,"ought":782,"Ġonly":783,"so":784,"ng":785,"Ġanything":786,"ool":787,"Ġwere":788,"Ġcar":789,"ĠMr":790,"Ġper":791,"Ġfind":792,"be":793,"Ġim":794,"Ġdown":795,"fore":796,"ance":797,"ose":798,"Ġgu":799,"Ġsay":800,"Ġcompany":801,"hed":802,"ab":803,"erv":804,"Ġres":805,"riend":806,"get":807,"ĠSure":808,"outh":809,"Ġwr":810,"ans":811,"Ġlove":812,"ady":813,"Ġsex":814,"oney":815,"Ġhapp":816,"ised":817,"Ġcheck":818,"Ġhim":819,"Ġname":820,"Ġra":821,"ue":822,"ĠYeah":823,"erest":824,"Ġsexy":825,"Ġbefore":826,"Ġtra":827,"Ġpay":828,"Ġgr":829,"Ġdiff":830,"other":831,"Ġun":832,"ert":833,"ittle":834,"Ġinterest":835,"XX":836,"Ġ2":837,"Ġlittle":838,"Ġmay":839,"Ġeven":840,"ition":841,"ĠIf":842,"Ġalso":843,"Ġlea":844,"iz":845,"Ġtry":846,"ĠChin":847,"Ġgive":848,"ĠHere":849,"ail":850,"Ġsorry":851,"em":852,"Ġmon":853,"ens":854,"Ġplay":855,"igh":856,"ign":857,"Ġstart":858,"Ġinto":859,"Ġnight":860,"Ġnext":861,"har":862,"way":863,"ade":864,"ause":865,"ater":866,"ather":867,"Ġman":868,"Ġmonth":869,"ways":870,"Ġmouth":871,"mer":872,"Ġwho":873,"Ġhome":874,"Ġuse":875,"Ġbec":876,"Ġwhere":877,"Ġthan":878,"Ġmin":879,"Ġnice":880,"Ġalways":881,"Ġchan":882,"Ġmust":883,"Ġsl":884,"atch":885,"Ġclass":886,"Ġraised":887,"ĠShe":888,"Ġmoney":889,"Ġacc":890,"Ġmean":891,"Ġthings":892,"alk":893,"Ġbetter":894,"vie":895,"ise":896,"Ġle":897,"int":898,"Ġask":899,"Ġdoing":900,"Hello":901,"Ġfriend":902,"ars":903,"ĠU":904,"ouse":905,"orrow":906,"ĠIn":907,"Ġmost":908,"ĠWhere":909,"ĠDid":910,"Ġfeel":911,"Ġopen":912,"Ġfew":913,"ĠHave":914,"iss":915,"Ġfood":916,"ting":917,"ĠWould":918,"Ġsch":919,"Ġfree":920,"ost":921,"du":922,"ĠWhen":923,"Ġke":924,"iver":925,"nds":926,"Ġhis":927,"Good":928,"mp":929,"ĠOk":930,"anc":931,"ese":932,"ĠRe":933,"ait":934,"Ġfl":935,"ĠNot":936,"Ġthese":937,"av":938,"Ġide":939,"oot":940,"Ġbad":941,"Ġdis":942,"How":943,"Ġinter":944,"artment":945,"ĠDon":946,"ounds":947,"eri":948,"te":949,"Ġbig":950,"Ġstill":951,"ang":952,"Ġlooking":953,"Ġpos":954,"orm":955,"ner":956,"Ġschool":957,"bo":958,"Ġfin":959,"pt":960,"Ġput":961,"xc":962,"Ġrec":963,"Ġhar":964,"Ġminut":965,"Ġtom":966,"Ġwhy":967,"ire":968,"Ġhead":969,"self":970,"ions":971,"....":972,"ild":973,"Ġplan":974,"Ġsc":975,"Ġdiffere":976,"Ġagain":977,"ĠGood":978,"ily":979,"les":980,"Ġmove":981,"ĠEng":982,"ence":983,"ĠVe":984,"Ġnever":985,"nder":986,"iness":987,"Ġbook":988,"Ġhour":989,"ond":990,"ĠAn":991,"Ġfam":992,"Ġshow":993,"Ġcard":994,"Ġdays":995,"lish":996,"partment":997,"ried":998,"Ġthree":999,"ee":1000,"no":1001,"Ġtomorrow":1002,"eci":1003,"Ġhouse":1004,"ft":1005,"Ġdec":1006,"Ġorder":1007,"Ġbl":1008,"xcuse":1009,"Ġexc":1010,"Ġeat":1011,"Ġph":1012,"hes":1013,"Ġinst":1014,"urn":1015,"Ġyears":1016,"Ġtheir":1017,"Hi":1018,"ctually":1019,"Ġbest":1020,"Ġplace":1021,"Ġidea":1022,"Ġbecause":1023,"Ġcont":1024,"Ġunder":1025,"Ġcount":1026,"hands":1027,"Ġthought":1028,"Ġhard":1029,"Ġthank":1030,"Ġaround":1031,"ĠReally":1032,"Ġhaven":1033,"Ġsupp":1034,"Ġface":1035,"Ġma":1036,"Ġbusiness":1037,"si":1038,"ope":1039,"ĠCould":1040,"ĠEnglish":1041,"gg":1042,"ull":1043,"Ġquite":1044,"Ġspea":1045,"Ġmind":1046,"ew":1047,"Ġoffice":1048,"Ġ3":1049,"Ġdrink":1050,"Ġheard":1051,"Ġmade":1052,"body":1053,"Ġworking":1054,"vel":1055,"oy":1056,"Ġwait":1057,"Ġ$":1058,"ĠK":1059,"Ġisn":1060,"Ġel":1061,"ĠJust":1062,"ents":1063,"Ġlate":1064,"Excuse":1065,"noon":1066,"imes":1067,"Ġafternoon":1068,"ments":1069,"ten":1070,"ĠAll":1071,"we":1072,"ord":1073,"ĠOf":1074,"Ġsal":1075,"Ġyet":1076,"Ġbel":1077,"Ġcomput":1078,"Ġelse":1079,"Ġold":1080,"ĠPlease":1081,"Ġdifferent":1082,"Ġdoll":1083,"ieve":1084,"ations":1085,"erson":1086,"iv":1087,"ĠChinese":1088,"Do":1089,"ĠBe":1090,"Ġsaid":1091,"Ġsha":1092,"Ġhot":1093,"Ġwhich":1094,"Ġprice":1095,"Ġpass":1096,"ĠThen":1097,"ne":1098,"Ġdin":1099,"ĠThanks":1100,"Ġprodu":1101,"Ġnum":1102,"Ġton":1103,"ud":1104,"Ġwonder":1105,"Ġfine":1106,"Ġsk":1107,"Ġbit":1108,"joy":1109,"fer":1110,"Ġdoesn":1111,"ix":1112,"tty":1113,"Ġdri":1114,"ertain":1115,"ks":1116,"Ġhappen":1117,"oint":1118,"Ġta":1119,"form":1120,"raid":1121,"Ġenjoy":1122,"lle":1123,"Ġeach":1124,"oth":1125,"Ġafraid":1126,"You":1127,"Ġstay":1128,"Can":1129,"Ġrest":1130,"Ġchar":1131,"wn":1132,"Ġear":1133,"ular":1134,"Ġcare":1135,"Ġrem":1136,"Ġhear":1137,"ĠSt":1138,"Ġdes":1139,"Ġten":1140,"Ġgl":1141,"Ġhigh":1142,"Ġaccount":1143,"Ġkeep":1144,"ated":1145,"ple":1146,"aut":1147,"Ġwrong":1148,"ult":1149,"ank":1150,"Ġlear":1151,"Ġatt":1152,"Ġlooks":1153,"ical":1154,"Ġtonight":1155,"ash":1156,"ready":1157,"Ġalready":1158,"Ġ5":1159,"Ġnumber":1160,"Ġdinner":1161,"Ġread":1162,"Ġbeaut":1163,"Ġeverything":1164,"icket":1165,"ize":1166,"Ġgetting":1167,"ĠFr":1168,"Ġimport":1169,"und":1170,"Ġhope":1171,"Ġtalk":1172,"Ġminutes":1173,"Ġanother":1174,"lic":1175,"Ġpretty":1176,"Ġticket":1177,"akes":1178,"Ġsounds":1179,"Ġmom":1180,"Ġdollars":1181,"up":1182,"Ġusually":1183,"Ġwhile":1184,"Ġbre":1185,"ork":1186,"Ġinv":1187,"Ġbelieve":1188,"Ġcle":1189,"ctor":1190,"Ġspeci":1191,"XXXX":1192,"Ġcomputer":1193,"Ġgir":1194,"Ġcoming":1195,"Ġevening":1196,"ai":1197,"Ġinc":1198,"Ġmat":1199,"ape":1200,"Ġwatch":1201,"Ġair":1202,"oots":1203,"ivers":1204,"Ġperson":1205,"air":1206,"Ġsec":1207,"ction":1208,"Ġparty":1209,"ancing":1210,"Ġspecial":1211,"ĠBoots":1212,"Ġhand":1213,"Ġsame":1214,"Ġready":1215,"Ġter":1216,"meric":1217,"Ġdist":1218,"Ġsy":1219,"Ġeas":1220,"rows":1221,"Ġserv":1222,"Ġoften":1223,"Ġshop":1224,"Ġins":1225,"Ġlive":1226,"Ġdone":1227,"ĠMaybe":1228,"Ġmight":1229,"Ġfamily":1230,"ĠHi":1231,"Ġsuch":1232,"Ġimportant":1233,"Ġ10":1234,"Ġchange":1235,"Ġreg":1236,"ps":1237,"Ġlist":1238,"ĠAmeric":1239,"Ġrun":1240,"Ġvis":1241,"Ġbeautif":1242,"og":1243,"als":1244,"He":1245,"Ġsoon":1246,"iting":1247,"ĠNow":1248,"Ġmeeting":1249,"Ġfreez":1250,"aper":1251,"ertainly":1252,"Ġever":1253,"ory":1254,"Ġleave":1255,"Ġfive":1256,"Ġthr":1257,"Ġstud":1258,"lor":1259,"ĠAl":1260,"brows":1261,"Ġguess":1262,"fe":1263,"Ġset":1264,"Ġbeautiful":1265,"stand":1266,"Ġmus":1267,"Ġquest":1268,"ember":1269,"Ġused":1270,"ren":1271,"ctive":1272,"Ġcity":1273,"oh":1274,"view":1275,"Ġstop":1276,"Ġagape":1277,"Ġstr":1278,"Ġwide":1279,"Ġcur":1280,"Ġaway":1281,"Ġmar":1282,"Ġphone":1283,"Ġcost":1284,"Ġenough":1285,"arket":1286,"iday":1287,"ails":1288,"ities":1289,"ason":1290,"Ġfun":1291,"ia":1292,"ired":1293,"Ġsmall":1294,"Ġwent":1295,"its":1296,"Ġfriends":1297,"Ġapartment":1298,"sible":1299,"Ġthrough":1300,"ss":1301,"Ġav":1302,"aur":1303,"ited":1304,"Ġpres":1305,"Ġseen":1306,"ping":1307,"Ġfav":1308,"come":1309,"ub":1310,"Ġoffer":1311,"Ġmovie":1312,"Ġweekend":1313,"oll":1314,"Ġinterested":1315,"ĠYour":1316,"aw":1317,"Ġdisc":1318,"Ġexperi":1319,"od":1320,"Ġexpens":1321,"ices":1322,"fort":1323,"Ġtri":1324,"ates":1325,"Ġfreezes":1326,"Ġcountry":1327,"Ġseat":1328,"ably":1329,"Ġleft":1330,"Ġhours":1331,"ious":1332,"Ġnews":1333,"Ġturn":1334,"Ġthose":1335,"cept":1336,"Ġstudy":1337,"Ġhaving":1338,"Ġunderstand":1339,"sh":1340,"uan":1341,"li":1342,"Ġtold":1343,"ĠWhich":1344,"Ġtrain":1345,"terday":1346,"Ġmoment":1347,"ĠWill":1348,"Ġhappy":1349,"The":1350,"Ġchild":1351,"ts":1352,"Ġspeak":1353,"gether":1354,"Ġac":1355,"eps":1356,"ian":1357,"Ġfar":1358,"Ġmiss":1359,"Ġadd":1360,"Are":1361,"ves":1362,"Ġfound":1363,"Ġbring":1364,"iversity":1365,"Ġthinking":1366,"lock":1367,"Ġworry":1368,"It":1369,"Ġend":1370,"Ġglad":1371,"per":1372,"Ġfavor":1373,"Ġproduct":1374,"Ġlar":1375,"Ġactually":1376,"aurant":1377,"Ġyesterday":1378,"ĠAny":1379,"ient":1380,"inctive":1381,"ĠChina":1382,"Ġjer":1383,"ince":1384,"Ġhappened":1385,"Ġexpensive":1386,"Ġsend":1387,"ĠFor":1388,"Ġjerks":1389,"Ġinform":1390,"ched":1391,"Ġseems":1392,"Ġlearn":1393,"ouble":1394,"Ġbreak":1395,"steps":1396,"Ġmusic":1397,"Ġinstinctive":1398,"Ġdistancing":1399,"Ġinstinctively":1400,"Ġsign":1401,"room":1402,"loy":1403,"Ġinterview":1404,"arms":1405,"........":1406,"uck":1407,"Ġkid":1408,"Ġinteresting":1409,"Ġcut":1410,"ial":1411,"ob":1412,"Ġcalled":1413,"Ġago":1414,"Ġable":1415,"May":1416,"oss":1417,"ohn":1418,"ific":1419,"bably":1420,"Ġform":1421,"Ġgirl":1422,"Ġok":1423,"ĠWho":1424,"Ġworld":1425,"omm":1426,"Ġcons":1427,"Ġbusy":1428,"ery":1429,"ors":1430,"arent":1431,"unch":1432,"Ġhair":1433,"Ġsing":1434,"ump":1435,"fect":1436,"Ġprefer":1437,"ĠLook":1438,"ĠNew":1439,"atur":1440,"ract":1441,"Ġservice":1442,"Ġemp":1443,"Ġexperience":1444,"Hey":1445,"Ġwin":1446,"ĠOkay":1447,"ock":1448,"Ġown":1449,"Ġfour":1450,"osed":1451,"ĠDoes":1452,"Ġcook":1453,"Ġty":1454,"Ġrestaurant":1455,"Ġtogether":1456,"pe":1457,"ense":1458,"Ġremember":1459,"reet":1460,"Ġbought":1461,"Ġprom":1462,"Ġthanks":1463,"Ġimp":1464,"Ġeasy":1465,"Ġmatter":1466,"Ġtrue":1467,"old":1468,"Ġsur":1469,"ife":1470,"Ġbir":1471,"Ġreal":1472,"ross":1473,"ffee":1474,"Ġrece":1475,"ny":1476,"right":1477,"Ġbed":1478,"Ġlife":1479,"Ġbeing":1480,"alking":1481,"ager":1482,"ike":1483,"ever":1484,"Ġmyself":1485,"Ġsit":1486,"ating":1487,"Ġcr":1488,"Ġtable":1489,"most":1490,"Ġspend":1491,"enty":1492,"ons":1493,"pped":1494,"Ġsomeone":1495,"oes":1496,"Ġtrans":1497,"Ġpack":1498,"000":1499,"Ġrel":1500,"Ġclot":1501,"iet":1502,"ips":1503,"az":1504,"ĠTo":1505,"ntil":1506,"Ġguy":1507,"Ġwater":1508,"ef":1509,"Ġlarge":1510,"Ġ4":1511,"Ġmarket":1512,"Ġreserv":1513,"ished":1514,"ĠUn":1515,"Ġfee":1516,"Ġtrip":1517,"ual":1518,"alth":1519,"Ġnothing":1520,"Ġexam":1521,"tern":1522,"Ġ6":1523,"Ġwar":1524,"ĠAs":1525,"ides":1526,"Ġcoffee":1527,"Ġcam":1528,"ĠJohn":1529,"So":1530,"ding":1531,"ĠWow":1532,"Ġuntil":1533,"Ġyourself":1534,"Ġpossible":1535,"Ġcomm":1536,"Ġdress":1537,"Ġboth":1538,"Ġsaw":1539,"Ġparent":1540,"Ġflight":1541,"Ġcolor":1542,"Ġweather":1543,"ries":1544,"Ġsuit":1545,"Ġcor":1546,"actly":1547,"Ġext":1548,"leep":1549,"Ġposition":1550,"Ġ7":1551,"rible":1552,"Ġagree":1553,"Ġbirth":1554,"where":1555,"Ġinformation":1556,"We":1557,"Ġcou":1558,"Ġsever":1559,"Wh":1560,"Ġcomfort":1561,"Ġwear":1562,"aila":1563,"Ġseveral":1564,"ĠMary":1565,"Ġmaybe":1566,"Ġbur":1567,"ĠSorry":1568,"Ġstand":1569,"Ġsum":1570,"Ġfill":1571,"Ġthir":1572,"ied":1573,"Ġavaila":1574,"ward":1575,"Ġfact":1576,"Ġsugg":1577,"Ġsuggest":1578,"ange":1579,"Ġvac":1580,"Ġqual":1581,"Ġrent":1582,"time":1583,"Ġpick":1584,"Ġdoctor":1585,"Ġclothes":1586,"ĠCome":1587,"Ġfull":1588,"Ġprobably":1589,"Ġparents":1590,"Ġpol":1591,"Ġlater":1592,"ommend":1593,"ines":1594,"Ġdate":1595,"Ġadv":1596,"ved":1597,"Ġexpect":1598,"Ġtaking":1599,"eth":1600,"ĠGreat":1601,"Ġcame":1602,"Ġcold":1603,"Ġrecommend":1604,"Ġdep":1605,"Ġgrad":1606,"ger":1607,"Ġemploy":1608,"jing":1609,"Ġboss":1610,"Ġteac":1611,"Ġteam":1612,"Ġhalf":1613,"ident":1614,"Ġshort":1615,"Ġintern":1616,"br":1617,"lud":1618,"Ġbeg":1619,"ĠActually":1620,"Ġalmost":1621,"Ġrep":1622,"ages":1623,"Ġpop":1624,"leas":1625,"Ġ8":1626,"Ġbank":1627,"erc":1628,"ĠSm":1629,"Have":1630,"Ġele":1631,"ott":1632,"ĠBy":1633,"Ġwanted":1634,"Ġmolle":1635,"Ġwalk":1636,"Ġwife":1637,"ĠFriday":1638,"Ġlost":1639,"Ġhur":1640,"Ġfore":1641,"ĠTom":1642,"Ġconf":1643,"Ġmach":1644,"Ġcho":1645,"Ġreservation":1646,"clock":1647,"Ġrequ":1648,"Ġsub":1649,"Ġavailable":1650,"ject":1651,"Ġdeep":1652,"Ġred":1653,"Ġpark":1654,"Ġrather":1655,"Ġcharge":1656,"Ġcred":1657,"ames":1658,"ided":1659,"Ġtimes":1660,"Ġmonths":1661,"Ġdepartment":1662,"Ġnear":1663,"ister":1664,"Ġsecond":1665,"ered":1666,"Ġaren":1667,"Ġref":1668,"Ġcond":1669,"Ġshopping":1670,"Ġbag":1671,"Ġconc":1672,"Ġstarted":1673,"erious":1674,"Ġheld":1675,"Is":1676,"ric":1677,"Ġweeks":1678,"Ġpa":1679,"nce":1680,"But":1681,"Ġmanager":1682,"Ġbirthday":1683,"reen":1684,"mm":1685,"Ġclean":1686,"Ġcondition":1687,"ijing":1688,"Ġent":1689,"Ġpic":1690,"cri":1691,"Ġfavorite":1692,"led":1693,"ath":1694,"ĠHey":1695,"ĠBeijing":1696,"Ġdeal":1697,"Ġproducts":1698,"Ġbill":1699,"Ġrain":1700,"Ġsix":1701,"pr":1702,"Ġappoint":1703,"ught":1704,"ues":1705,"ph":1706,"Ġexerc":1707,"Ġvisit":1708,"era":1709,"Ġhealth":1710,"Ġseem":1711,"Ġdiffic":1712,"line":1713,"ute":1714,"Ġlunch":1715,"Ġsw":1716,"Ġcalling":1717,"lcome":1718,"Ġsell":1719,"ĠEvery":1720,"by":1721,"ational":1722,"uring":1723,"ently":1724,"Ġind":1725,"acing":1726,"Ġpain":1727,"ball":1728,"Ġsince":1729,"oose":1730,"ffic":1731,"Ġbro":1732,"Ġwind":1733,"ics":1734,"Ġfil":1735,"Ġslow":1736,"Ġteacher":1737,"ĠMon":1738,"ustom":1739,"Ġcash":1740,"Ġserious":1741,"Ġthough":1742,"ĠAf":1743,"orts":1744,"Ġ9":1745,"Ġdrive":1746,"Ġtook":1747,"Ġletter":1748,"adam":1749,"Ġpleas":1750,"Ġuniversity":1751,"Ġsize":1752,"na":1753,"Ġmet":1754,"ĠMe":1755,"Ġliving":1756,"Ġinclud":1757,"Ġhon":1758,"ĠCertainly":1759,"Ġdire":1760,"ume":1761,"ces":1762,"Ġhotel":1763,"Ġapply":1764,"ru":1765,"Ġbas":1766,"Ġmed":1767,"Ġyuan":1768,"Ġass":1769,"Ġdig":1770,"Ġsummer":1771,"ĠSmith":1772,"ention":1773,"ists":1774,"Ġcredit":1775,"Ġsupposed":1776,"ĠOur":1777,"Ġwouldn":1778,"Ġhat":1779,"Ġwra":1780,"Ġearly":1781,"Ġexactly":1782,"XXXXXXXX":1783,"Ġfast":1784,"Ġsleep":1785,"Ġcoll":1786,"Ġfeeling":1787,"ears":1788,"Ġminute":1789,"Ġmaj":1790,"aturday":1791,"Ġve":1792,"Ġwrite":1793,"cast":1794,"side":1795,"Ġmaking":1796,"Ġwish":1797,"Ġtight":1798,"ither":1799,"ĠFine":1800,"Ġmain":1801,"Ġreturn":1802,"ĠOne":1803,"Ġreason":1804,"Ġtalking":1805,"ital":1806,"ĠTV":1807,"icy":1808,"ĠSaturday":1809,"Ġgame":1810,"Ġwasn":1811,"Ġeveryone":1812,"work":1813,"ĠAt":1814,"Ġline":1815,"Ġdifficult":1816,"Did":1817,"rist":1818,"Ġtop":1819,"Ġsales":1820,"Ġchildren":1821,"Ġmakes":1822,"Ġmarried":1823,"Ġbar":1824,"rown":1825,"Ġpoint":1826,"ĠAb":1827,"Ġperfect":1828,"Ġtrying":1829,"Ġsty":1830,"ĠFirst":1831,"Ġflo":1832,"gram":1833,"Ġprep":1834,"Ġappointment":1835,"uc":1836,"Ġtot":1837,"Ġstreet":1838,"Ġtea":1839,"Ġpal":1840,"ced":1841,"Ġluck":1842,"Ġdecided":1843,"Ġcomple":1844,"Ġterrible":1845,"Ġcha":1846,"Ġdet":1847,"Ġsigh":1848,"Ġcase":1849,"ĠMiss":1850,"Ġloc":1851,"Ġcross":1852,"ower":1853,"Ġleast":1854,"Ġtast":1855,"ming":1856,"Ġdepos":1857,"Ġchoose":1858,"Ġproblems":1859,"Ġswe":1860,"Ġpie":1861,"mb":1862,"Ġgradu":1863,"Ġcustom":1864,"Ġspeaking":1865,"Ġyoung":1866,"Ġquestions":1867,"ont":1868,"Ġonce":1869,"Ġcouldn":1870,"Ġtravel":1871,"ility":1872,"Ġfid":1873,"ĠSh":1874,"Ġbox":1875,"Ġfidget":1876,"Ġquick":1877,"Ġbegin":1878,"Ġshall":1879,"llege":1880,"ush":1881,"Ġtired":1882,"ĠAmerican":1883,"Ġmajor":1884,"Ġpaper":1885,"Ġside":1886,"Ġresp":1887,"Ġpresent":1888,"Ġcouple":1889,"raw":1890,"ouched":1891,"ĠChrist":1892,"Ġtour":1893,"Ġcomes":1894,"Ġ20":1895,"Ġsim":1896,"got":1897,"Ġworked":1898,"Ġpur":1899,"ellent":1900,"sw":1901,"Ġalong":1902,"Ġstore":1903,"Would":1904,"Ġda":1905,"Ġquestion":1906,"Ġfif":1907,"Ġduring":1908,"Ġansw":1909,"Ġbooks":1910,"Ġtears":1911,"cess":1912,"hip":1913,"Ġbuild":1914,"Ġtest":1915,"Ġaccept":1916,"Ġpartic":1917,"Ġshar":1918,"Ġtried":1919,"Ġreport":1920,"Ġcontract":1921,"Ġsyll":1922,"Ġvacation":1923,"Ġexercise":1924,"Ġprogram":1925,"Ġwinter":1926,"Ġfinished":1927,"Ġed":1928,"Ġsays":1929,"Ġmess":1930,"ec":1931,"Ġprof":1932,"Ġsmo":1933,"velop":1934,"hang":1935,"Ġforeign":1936,"band":1937,"Ġpopular":1938,"Ġca":1939,"Ġsn":1940,"Ġ15":1941,"peci":1942,"Ġneeds":1943,"Ġchick":1944,"ream":1945,"undred":1946,"lips":1947,"Ġquiver":1948,"Ġcent":1949,"Ġits":1950,"Ġsyllable":1951,"Ġwrapped":1952,"Ġwine":1953,"ys":1954,"ween":1955,"itc":1956,"Ġseeking":1957,"Ġweight":1958,"oup":1959,"Ġlisten":1960,"Ġbott":1961,"Ġpassport":1962,"Ġwonderful":1963,"Ġ'":1964,"Ġless":1965,"Ġcountries":1966,"should":1967,"ule":1968,"Ġart":1969,"Ġwhole":1970,"Ġwom":1971,"ret":1972,"Ġi":1973,"Ġcertainly":1974,"Ġgif":1975,"Ġsale":1976,"Ġfloor":1977,"less":1978,"ision":1979,"pecially":1980,"gs":1981,"xi":1982,"Ġbetween":1983,"ider":1984,"ĠNice":1985,"ench":1986,"Ġsun":1987,"Ġes":1988,"Ġ(":1989,"Ġkinds":1990,"Ġpast":1991,"Ġstrong":1992,"esides":1993,"Ġnails":1994,"cent":1995,"ield":1996,"Ġreading":1997,"Ġreceive":1998,"Ġburning":1999,"ĠRight":2000,"Ġslump":2001,"Ġinsur":2002,"Ġword":2003,"Ġla":2004,"Ġdowncast":2005,"shoulders":2006,"Ġsyst":2007,"Ġwithout":2008,"ĠSome":2009,"Ġarri":2010,"Ġsharp":2011,"resh":2012,"ness":2013,"Ġfa":2014,"Ġpost":2015,"ĠOn":2016,"Ġfoot":2017,"ĠAlright":2018,"olog":2019,"ĠVery":2020,"Ġdepend":2021,"Ġallow":2022,"Ġhundred":2023,"ĠAmerica":2024,"Ġpot":2025,"Ġcollege":2026,"angu":2027,"Ġdeposit":2028,"Ġgi":2029,"Ġchance":2030,"Ġfit":2031,"Ġplanning":2032,"cu":2033,"Ġmovements":2034,"Ġsalary":2035,"Ġsingle":2036,"osp":2037,"ĠJan":2038,"Ġoutside":2039,"Ġplaying":2040,"Ġsched":2041,"ĠCom":2042,"ients":2043,"Ġmil":2044,"Ġeff":2045,"Ġsuppose":2046,"Ġstudent":2047,"Ġhus":2048,"Ġhusband":2049,"Ġtrouble":2050,"Ġhonest":2051,"vies":2052,"Ġrate":2053,"vert":2054,"Ġdance":2055,"Ġpacing":2056,"itchen":2057,"cle":2058,"jaw":2059,"sol":2060,"Ġattend":2061,"Ġtightens":2062,"Ġkitchen":2063,"ict":2064,"Ġeither":2065,"ately":2066,"Ġwindow":2067,"solute":2068,"ib":2069,"zy":2070,"head":2071,"Ġanswer":2072,"man":2073,"Ġmovies":2074,"Ġchicken":2075,"Ġforget":2076,"erve":2077,"Ġhold":2078,"Ġslouched":2079,"Ġem":2080,"ĠPer":2081,"Ġlose":2082,"Ġpalms":2083,"................":2084,"Ġgrit":2085,"teeth":2086,"Ġfig":2087,"Ġjoin":2088,"Ġtemp":2089,"Ġthirty":2090,"Ġmen":2091,"ĠYork":2092,"Ġrooms":2093,"ĠJack":2094,"Ġpract":2095,"Ġpri":2096,"Ġlik":2097,"Ġparticular":2098,"uss":2099,"ollow":2100,"solutely":2101,"Could":2102,"ier":2103,"Ġskill":2104,"Ġyeah":2105,"Ġsystem":2106,"Ġtype":2107,"Ġmachine":2108,"Ġsister":2109,"Ġopp":2110,"Ġstiff":2111,"Ġtwenty":2112,"Ġcatch":2113,"Ġrecently":2114,"Ġhate":2115,"Ġtraffic":2116,"Ġasked":2117,"Ġinsurance":2118,"ĠTell":2119,"Ġseven":2120,"ĠDe":2121,"Ġconsider":2122,"Ġcrossed":2123,"fists":2124,"Ġclench":2125,"Ġlangu":2126,"Where":2127,"Ġmother":2128,"Ġprov":2129,"Ġespecially":2130,"ousand":2131,"Ġprices":2132,"Ġpercent":2133,"Ġshoes":2134,"Ġsound":2135,"Ġones":2136,"Ġsports":2137,"ĠLond":2138,"Ġgoods":2139,"Ġsometimes":2140,"ĠLondon":2141,"Ġtense":2142,"Ġprepare":2143,"haps":2144,"Ġmag":2145,"Ġfresh":2146,"cial":2147,"ral":2148,"Ġpromot":2149,"ings":2150,"Ġinternet":2151,"ĠHa":2152,"ged":2153,"Ġsick":2154,"lain":2155,"Ġwants":2156,"Ġlovely":2157,"Ġexcellent":2158,"Ġtotal":2159,"Ġthousand":2160,"Ġdouble":2161,"arch":2162,"Ġforgot":2163,"Ġmeans":2164,"Ġappre":2165,"Ġtakes":2166,"ency":2167,"Ġwondering":2168,"Ġdel":2169,"Ġgen":2170,"Ġstyle":2171,"Ġappreci":2172,"Ġaw":2173,"Ġgames":2174,"Ġwaiting":2175,"Ġpub":2176,"Ġplans":2177,"ator":2178,"ĠâĢ":2179,"Ġrunning":2180,"Ġmovement":2181,"ĠZ":2182,"aken":2183,"Ġlots":2184,"Ġsurpr":2185,"rent":2186,"Ġbor":2187,"ĠLi":2188,"Ġpersonal":2189,"cause":2190,"Ġdef":2191,"Ġshir":2192,"Ġwatching":2193,"Ġact":2194,"Ġcool":2195,"Ġonline":2196,"mas":2197,"Ġquality":2198,"Ġcra":2199,"Ġfinish":2200,"pect":2201,"Ġwelcome":2202,"Ġbrother":2203,"ets":2204,"Ġwriting":2205,"Ġstudents":2206,"Ġokay":2207,"Th":2208,"fast":2209,"ĠSir":2210,"iron":2211,"Ġcompan":2212,"ung":2213,"Ġfall":2214,"ĠAcc":2215,"Ġconven":2216,"ives":2217,"Ġann":2218,"Ġdocu":2219,"And":2220,"ĠMonday":2221,"Ġmadam":2222,"Ġhol":2223,"Ġleaving":2224,"aces":2225,"Ġsat":2226,"Ġdiscuss":2227,"Ġeight":2228,"ĠIntern":2229,"Ġextra":2230,"Ġtaken":2231,"Ġblack":2232,"Ġanyone":2233,"Ġpaid":2234,"ĠSomet":2235,"Ġclasses":2236,"ĠPe":2237,"Ġcup":2238,"ĠSounds":2239,"ĠAfter":2240,"ton":2241,"Ġmine":2242,"ĠBecause":2243,"ĠEx":2244,"Ġwhe":2245,"Ġproject":2246,"Ġmid":2247,"ĠPro":2248,"ĠRo":2249,"Ġclear":2250,"rat":2251,"Ġclose":2252,"ĠChristmas":2253,"ortun":2254,"Ġfather":2255,"Ġwhite":2256,"Ġgift":2257,"ium":2258,"ĠAh":2259,"Ġcompanies":2260,"ution":2261,"ĠAnything":2262,"Ġboy":2263,"Ġtickets":2264,"Ġkidding":2265,"Ġkids":2266,"Ġtransfer":2267,"Ġcat":2268,"Ġheav":2269,"Ġfix":2270,"Ġfollow":2271,"Ġbreakfast":2272,"inite":2273,"ressed":2274,"Ġcomplete":2275,"Ġcop":2276,"Ġenv":2277,"Ġrespon":2278,"Ġaff":2279,"cript":2280,"Ġapplic":2281,"tures":2282,"Ġlately":2283,"Ġveget":2284,"Ġsomewhere":2285,"ashion":2286,"ĠAbout":2287,"ead":2288,"Ġlibr":2289,"Ġdiscount":2290,"Ġstudying":2291,"Ġconditions":2292,"ĠGo":2293,"Ġtreat":2294,"Ġelect":2295,"hai":2296,"ulations":2297,"Ġtele":2298,"Why":2299,"ĠBob":2300,"Ġfu":2301,"Ġworried":2302,"Ġconvenient":2303,"ĠTake":2304,"Ġsave":2305,"Ġstuff":2306,"Ġpleasure":2307,"If":2308,"land":2309,"Ġexcited":2310,"con":2311,"Ġbuilding":2312,"Ġahead":2313,"Ġball":2314,"Well":2315,"ountain":2316,"Ġ30":2317,"Ġbedroom":2318,"Ġswim":2319,"edding":2320,"Ġsent":2321,"Ġtown":2322,"ken":2323,"Ġgoes":2324,"Ġbath":2325,"Ġfurn":2326,"Ġperform":2327,"ache":2328,"Ġlibrary":2329,"ants":2330,"Ġdesign":2331,"ĠComp":2332,"mes":2333,"Ġmail":2334,"not":2335,"ĠMrs":2336,"ove":2337,"Ġvar":2338,"Ġfront":2339,"Ġtech":2340,"Ġson":2341,"Ġstra":2342,"hange":2343,"ables":2344,"Ġresume":2345,"Ġhandle":2346,"astic":2347,"uit":2348,"ĠJim":2349,"Ġschedule":2350,"This":2351,"Ġheavy":2352,"me":2353,"ees":2354,"Ġstation":2355,"Ġdevelop":2356,"son":2357,"Ġfield":2358,"ully":2359,"50":2360,"Ġwedding":2361,"Ġcoun":2362,"Ġpair":2363,"Ġoh":2364,"Ġroad":2365,"Ġadvert":2366,"Ġdirect":2367,"eed":2368,"Ġaut":2369,"over":2370,"ters":2371,"Ġdoor":2372,"Ġbecome":2373,"Ġclients":2374,"Ġmatch":2375,"Ġdaught":2376,"ĠTw":2377,"aby":2378,"Ġphot":2379,"Ġhig":2380,"Ġappreciate":2381,"Ġev":2382,"Ġord":2383,"Ġdriving":2384,"Ġcollect":2385,"Ġdeg":2386,"ems":2387,"irm":2388,"Ġsol":2389,"Ġnewsp":2390,"col":2391,"ative":2392,"Ġhor":2393,"Ġboard":2394,"Ġdro":2395,"iding":2396,"elcome":2397,"Ġcooking":2398,"Ġprofess":2399,"ĠSte":2400,"ĠLets":2401,"Ġstep":2402,"Ġfamous":2403,"Ġlaw":2404,"ls":2405,"Ġkey":2406,"Ġblue":2407,"Ġwall":2408,"ering":2409,"Ġcurrent":2410,"Ġaddress":2411,"Ġchoice":2412,"Ġarea":2413,"ĠSp":2414,"Ġsuper":2415,"Ġlonger":2416,"Ġplane":2417,"ĠBesides":2418,"Ġopportun":2419,"ĠSund":2420,"Ġtaste":2421,"Ġgone":2422,"Ġamount":2423,"initely":2424,"Welcome":2425,"Ġvot":2426,"ĠTues":2427,"Ġcannot":2428,"Ġeng":2429,"ĠTuesday":2430,"ma":2431,"iew":2432,"Ġeffect":2433,"Ġstar":2434,"erature":2435,"more":2436,"Ġfootball":2437,"Ġview":2438,"Ġarr":2439,"Ġskin":2440,"apan":2441,"Ġgener":2442,"Ġmem":2443,"Ġmeat":2444,"ara":2445,"nect":2446,"Ġhist":2447,"Ġcover":2448,"Ġassist":2449,"ĠBill":2450,"oud":2451,"ĠID":2452,"ories":2453,"Ġinstead":2454,"Ġfair":2455,"ĠTai":2456,"Ġfashion":2457,"Ġmod":2458,"ĠJapan":2459,"Ġexchange":2460,"ĠUniversity":2461,"Ġmagaz":2462,"IB":2463,"Ġ\"":2464,"Ġeduc":2465,"Ġbrand":2466,"Ġmanage":2467,"ĠSunday":2468,"oe":2469,"Ġben":2470,"ĠMa":2471,"Ġfilm":2472,"Ġ.":2473,"Ġlucky":2474,"Ġz":2475,"Ġtor":2476,"Ġpriv":2477,"Ġdaughter":2478,"ring":2479,"ĠMike":2480,"Ġship":2481,"Ġtechn":2482,"30":2483,"Ġfinally":2484,"Ġdecide":2485,"lfriend":2486,"Ġgets":2487,"Ġsand":2488,"Ġgirls":2489,"Ġforward":2490,"Ġstock":2491,"Ġcamp":2492,"Ġdear":2493,"Ġregular":2494,"Ġfish":2495,"Ġsoft":2496,"dle":2497,"ted":2498,"Ġdesk":2499,"Ġgirlfriend":2500,"ospital":2501,"Ġpublic":2502,"Ġenviron":2503,"Ġdam":2504,"Ġcas":2505,"Ġbreat":2506,"Ġexciting":2507,"Ġabsolutely":2508,"Ġafford":2509,"cription":2510,"Ġplaces":2511,"Ġnose":2512,"Ġneigh":2513,"Ġ100":2514,"Ġdifference":2515,"sib":2516,"Ġemployees":2517,"Ġneighb":2518,"ĠWith":2519,"Ġdiet":2520,"Ġgrow":2521,"Ġanyway":2522,"Ġamaz":2523,"ĠRIB":2524,"Ġlanguage":2525,"Ġsoup":2526,"avid":2527,"Ġbenef":2528,"iced":2529,"Ġusing":2530,"Ġquickly":2531,"Ġsense":2532,"Ġmedic":2533,"Ġenvironment":2534,"Ġrecord":2535,"Ġlu":2536,"Ġcars":2537,"Ġgrand":2538,"Ġregist":2539,"Ġmist":2540,"Ġintro":2541,"nad":2542,"Ġtrave":2543,"ology":2544,"Ġcrazy":2545,"mit":2546,"Ġlow":2547,"hall":2548,"antastic":2549,"Ġfruit":2550,"fully":2551,"ses":2552,"Ġhands":2553,"ĠMost":2554,"Ġlearned":2555,"Ġreceived":2556,"Ġfre":2557,"My":2558,"Ġworth":2559,"ĠNothing":2560,"teen":2561,"ording":2562,"Ġpress":2563,"ĠThese":2564,"Ġspace":2565,"Ġsucc":2566,"ĠSometimes":2567,"Ġsuccess":2568,"Ġeating":2569,"Ġ50":2570,"ug":2571,"cel":2572,"Ġinvest":2573,"Ġadvice":2574,"Ġquiet":2575,"isf":2576,"itting":2577,"Ġ200":2578,"Ġdepends":2579,"ĠPerhaps":2580,"els":2581,"rect":2582,"ongrat":2583,"den":2584,"Ġyours":2585,"Ġholiday":2586,"ration":2587,"Ġpoll":2588,"Ġshouldn":2589,"Ġtrad":2590,"bs":2591,"gan":2592,"ior":2593,"Ġsort":2594,"Ġflow":2595,"Ġlearning":2596,"Ġclim":2597,"Ġamazing":2598,"ĠDad":2599,"oc":2600,"Ġsemes":2601,"ney":2602,"Ġearli":2603,"Ġcounter":2604,"mo":2605,"Ġasking":2606,"Ġclub":2607,"Ġguest":2608,"Ġresult":2609,"hanghai":2610,"Ġsatisf":2611,"Ġtornad":2612,"ĠHot":2613,"ĠBrown":2614,"Ġknew":2615,"Ġapplication":2616,"Ġstraight":2617,"pl":2618,"Ġtyp":2619,"Ġteach":2620,"Ġwhether":2621,"Ġdiv":2622,"XXXXXXXXXXXXXXXX":2623,"Ġwoman":2624,"There":2625,"cha":2626,"go":2627,"gy":2628,"ges":2629,"Ġglass":2630,"wan":2631,"ĠWang":2632,"Ġitems":2633,"icle":2634,"Ġbuying":2635,"Ġrelations":2636,"When":2637,"ches":2638,"Ġavo":2639,"Ġperformance":2640,"Ġsemester":2641,"ancy":2642,"aged":2643,"Ġimpro":2644,"Ġlocal":2645,"Mr":2646,"Ġlat":2647,"Ġconcert":2648,"Ġfly":2649,"to":2650,"Ġnotice":2651,"Ġnecess":2652,"ĠUS":2653,"what":2654,"Ġtre":2655,"ĠAust":2656,"Ġseeing":2657,"Ġpan":2658,"Ġloan":2659,"Ġenjoyed":2660,"--":2661,"min":2662,"ony":2663,"Ġnerv":2664,"vern":2665,"Ġpromotion":2666,"Ġmountain":2667,"Ġbaby":2668,"Ġhospital":2669,"ĠMs":2670,"Ġvegetables":2671,"ĠTaiwan":2672,"Ġspent":2673,"Ġanymore":2674,"Ġdriver":2675,"ongratulations":2676,"Ġtall":2677,"ĠGod":2678,"Ġtou":2679,"Ġdelic":2680,"Ġairport":2681,"com":2682,"let":2683,"road":2684,"Ġreceip":2685,"Ġpiece":2686,"Ġgreen":2687,"Ġhu":2688,"ĠCo":2689,"Ġexample":2690,"Ġsubway":2691,"Ġpo":2692,"Ġnine":2693,"Ġcourses":2694,"Ġegg":2695,"Ġride":2696,"Ġjobs":2697,"Ġchecking":2698,"Ġsecret":2699,"Ġmenu":2700,"ĠCl":2701,"rib":2702,"Ġcontact":2703,"Ġnewspaper":2704,"Ġmention":2705,"Ġblood":2706,"Ġparking":2707,"ern":2708,"ĠEach":2709,"Ġhigher":2710,"Ġsci":2711,"Ġimm":2712,"Ġgiven":2713,"ĠPeople":2714,"ĠCompany":2715,"ym":2716,"ĠHmm":2717,"Ġexcept":2718,"Ġbeef":2719,"urs":2720,"Ġsong":2721,"Ġste":2722,"ĠBr":2723,"itional":2724,"Ġprivate":2725,"Ġpackage":2726,"ĠWait":2727,"Ġser":2728,"Ġhi":2729,"Ġdetails":2730,"Ġprovide":2731,"the":2732,"ĠWor":2733,"Ġothers":2734,"Ġtaxi":2735,"Ġwarm":2736,"Ġconnect":2737,"Ġguys":2738,"ĠWas":2739,"ilities":2740,"Ġpicture":2741,"Ġsweet":2742,"ĠAustral":2743,"Ġgave":2744,"ically":2745,"Ġcheap":2746,"Ġnervous":2747,"ye":2748,"ĠTr":2749,"Ġbeach":2750,"cribe":2751,"Ġlatest":2752,"ĠGr":2753,"Ġpayment":2754,"Ġice":2755,"Ġfantastic":2756,"Ġgym":2757,"Ġhung":2758,"Ġ19":2759,"anger":2760,"Ġcorrect":2761,"Ġsour":2762,"ĠInternet":2763,"por":2764,"ising":2765,"ĠBar":2766,"Ġclient":2767,"rench":2768,"Ġgra":2769,"ĠMom":2770,"iture":2771,"unk":2772,"ĠJane":2773,"ential":2774,"Ġlead":2775,"Ġliked":2776,"Ġcompletely":2777,"Ġintrodu":2778,"che":2779,"Ġplenty":2780,"ertific":2781,"Ġmoved":2782,"Ġfamil":2783,"ĠIsn":2784,"Ġhealthy":2785,"Ġarrange":2786,"ica":2787,"ĠMany":2788,"Ġalright":2789,"iled":2790,"how":2791,"ggage":2792,"Ġdefinitely":2793,"Ġinside":2794,"Ġfuture":2795,"ext":2796,"Ġcomputers":2797,"Ġattract":2798,"iod":2799,"rol":2800,"Ġperiod":2801,"Ġmiddle":2802,"Ġluggage":2803,"my":2804,"Ġattention":2805,"Ġce":2806,"ĠMac":2807,"ances":2808,"usan":2809,"Ġorgan":2810,"Ġval":2811,"Ġfinal":2812,"Ġcosts":2813,"Ġbottle":2814,"ĠStates":2815,"Ġcustomers":2816,"Ġearlier":2817,"Ġanim":2818,"Ġdeli":2819,"Ġfunny":2820,"conom":2821,"Ġill":2822,"Ġcap":2823,"ĠShanghai":2824,"Ġtraining":2825,"Ġtouch":2826,"That":2827,"tle":2828,"eak":2829,"ible":2830,"Ġland":2831,"Ġret":2832,"Ġmeal":2833,"Ġproper":2834,"Ġmessage":2835,"lves":2836,"top":2837,"Ġdrinks":2838,"Ġbroke":2839,"ĠSee":2840,"Ġgovern":2841,"quare":2842,"Ġfigure":2843,"Ġob":2844,"ified":2845,"ĠDidn":2846,"They":2847,"Ġhurry":2848,"Ġswimming":2849,"Ġcoat":2850,"ĠFrench":2851,"Ġcontin":2852,"Ġcompet":2853,"ude":2854,"Ġcorner":2855,"Ġdecision":2856,"Ġrequired":2857,"Ġfurniture":2858,"Ġhit":2859,"Ġwithin":2860,"Ġprint":2861,"ina":2862,"Ġwords":2863,"aff":2864,"ĠQ":2865,"estern":2866,"ored":2867,"Ġsmoking":2868,"Ġju":2869,"ĠDan":2870,"ipe":2871,"Ġbrought":2872,"Ġhungry":2873,"Ġplayer":2874,"Ġaccident":2875,"Ġpolice":2876,"Ġcomfortable":2877,"Ġdelivery":2878,"ots":2879,"enny":2880,"ĠDavid":2881,"Ġreceipt":2882,"ĠSteven":2883,"Ġpat":2884,"lymp":2885,"ppy":2886,"urg":2887,"Ġocc":2888,"Ġdog":2889,"Ġhurt":2890,"Ġrequire":2891,"hib":2892,"Ġpurcha":2893,"set":2894,"Ġsil":2895,"ĠMar":2896,"Ġcharac":2897,"Ġsnow":2898,"Ġdocuments":2899,"Ġcart":2900,"Ġdry":2901,"ĠGet":2902,"Ġtemperature":2903,"Ġmater":2904,"Ġcream":2905,"Ġround":2906,"Ġovertime":2907,"ĠEverything":2908,"Ġfat":2909,"ĠSouth":2910,"Ġkill":2911,"ĠWelcome":2912,"essert":2913,"Ġcarry":2914,"Ġboxes":2915,"Ġimprove":2916,"mail":2917,"Ġmachines":2918,"Ġindust":2919,"ĠTwo":2920,"ĠHotel":2921,"Ġspicy":2922,"Ġmoder":2923,"Ġtelling":2924,"ional":2925,"Ġplayers":2926,"Ġflowers":2927,"iqu":2928,"erence":2929,"Ġcheaper":2930,"Ġshirt":2931,"Ġfur":2932,"ĠOlymp":2933,"ĠWhite":2934,"io":2935,"Ġsection":2936,"Ġemails":2937,"Ġhistory":2938,"Here":2939,"do":2940,"gage":2941,"ĠBoth":2942,"ival":2943,"Ġtornado":2944,"Ġdr":2945,"Ġdessert":2946,"Ġopin":2947,"ures":2948,"Ġhop":2949,"Ġcommun":2950,"Ġcopy":2951,"ĠBl":2952,"Ġteams":2953,"Ġchocol":2954,"Ġequ":2955,"Ġnights":2956,"Ġsalad":2957,"Ġways":2958,"Ġcal":2959,"Ġdest":2960,"Ġlic":2961,"Ġstress":2962,"hind":2963,"selves":2964,"ale":2965,"Ġsight":2966,"Ġcake":2967,"Ġpounds":2968,"Ġhang":2969,"uth":2970,"Ġpolicy":2971,"Ġbeer":2972,"Ġstom":2973,"ĠOr":2974,"bed":2975,"Ġwithd":2976,"Ġresults":2977,"Ġcamera":2978,"Ġdelicious":2979,"Ġmot":2980,"aster":2981,"Ġpotential":2982,"Ġnecessary":2983,"Oh":2984,"orge":2985,"Ġsea":2986,"Ġworks":2987,"ared":2988,"Ġcards":2989,"ĠAfric":2990,"rest":2991,"Ġwat":2992,"ĠMic":2993,"Ġcol":2994,"Ġfire":2995,"Ġeye":2996,"Ġbehind":2997,"Ġtrade":2998,"Ġflat":2999,"ogra":3000,"Ġskills":3001,"ging":3002,"Ġheart":3003,"Ġpale":3004,"arden":3005,"Ġgraduate":3006,"rew":3007,"Ġstaff":3008,"Ġpull":3009,"................................":3010,"Ġ25":3011,"Ġsimple":3012,"Ġgovernment":3013,"Ġlab":3014,"ground":3015,"ursday":3016,"apers":3017,"gal":3018,"sha":3019,"Ġoper":3020,"airs":3021,"Ġpromise":3022,"Ġthird":3023,"Ġeducation":3024,"ffice":3025,"ĠStreet":3026,"Ġwithdraw":3027,"ware":3028,"Ġdark":3029,"Ġdancing":3030,"Ġseason":3031,"Ġabroad":3032,"cks":3033,"Ġdegree":3034,"Ġopportunity":3035,"Ġmedicine":3036,"zen":3037,"Ġdream":3038,"Ġroll":3039,"Ġfifteen":3040,"ination":3041,"Ġexplain":3042,"Ġlooked":3043,"ĠPet":3044,"Ġstandard":3045,"ĠAd":3046,"Ġtwice":3047,"Ġinternational":3048,"Ġfight":3049,"edi":3050,"Ġkil":3051,"ĠChe":3052,"Ġmodern":3053,"Ġstaying":3054,"Ġseats":3055,"Ġcenter":3056,"Ġfurther":3057,"nis":3058,"ones":3059,"Ġstate":3060,"Ġadvertise":3061,"nel":3062,"Ġhum":3063,"Ġring":3064,"Ġfifty":3065,"Ġband":3066,"Ġnon":3067,"ĠHong":3068,"ĠSusan":3069,"ĠGive":3070,"Ġprescription":3071,"Ġjuice":3072,"een":3073,"ley":3074,"Ġclock":3075,"Ġagainst":3076,"market":3077,"oub":3078,"lebr":3079,"elled":3080,"Ġspec":3081,"ission":3082,"Ġboring":3083,"Ġcelebr":3084,"ety":3085,"Ġchanged":3086,"last":3087,"Ġinvite":3088,"Ġprocess":3089,"Ġdrinking":3090,"Ġterms":3091,"ĠMark":3092,"Ġ16":3093,"Ġbroken":3094,"Ġfinding":3095,"Ġsaying":3096,"Ġmostly":3097,"Ġturned":3098,"Ġpressure":3099,"Ġgas":3100,"ĠThursday":3101,"Ġinstru":3102,"10":3103,"Ġredu":3104,"ĠMadam":3105,"oses":3106,"izz":3107,"Ġregister":3108,"phone":3109,"Ġmiles":3110,"Ġmanagement":3111,"de":3112,"ĠShall":3113,"Ġservices":3114,"Ġmilk":3115,"Ġflu":3116,"ĠAustralia":3117,"iel":3118,"bit":3119,"Ġrid":3120,"ĠCongratulations":3121,"Ġvisa":3122,"ket":3123,"tain":3124,"idence":3125,"ĠLin":3126,"ĠAnyway":3127,"Ġopinion":3128,"ipp":3129,"Ġtie":3130,"Ġsold":3131,"Ġspare":3132,"Ġwashing":3133,"Ġappro":3134,"ĠUnited":3135,"ĠAfrica":3136,"Ġtax":3137,"Ġwomen":3138,"Ġengine":3139,"ped":3140,"onna":3141,"Ġcell":3142,"Ġexhib":3143,"ĠEven":3144,"Ġhomework":3145,"Ġincre":3146,"Ġpictures":3147,"Ġsupermarket":3148,"Ġpollution":3149,"pri":3150,"Ġdraw":3151,"Ġpar":3152,"Ġiss":3153,"Ġhob":3154,"Ġcontrol":3155,"five":3156,"ores":3157,"vious":3158,"estival":3159,"Ġtennis":3160,"Ġcable":3161,"Ġnoticed":3162,"Ġtruth":3163,"Ġcareful":3164,"Ġmissed":3165,"Ġnatur":3166,"Ġrush":3167,"Ġsup":3168,"Ġaccording":3169,"Ġtransport":3170,"Ġshipment":3171,"Ġbenefits":3172,"book":3173,"iar":3174,"Ġdescribe":3175,"Ġcustomer":3176,"Ġfile":3177,"vers":3178,"ĠUm":3179,"Ġnorm":3180,"unately":3181,"Ġchecked":3182,"20":3183,"Ġban":3184,"Ġearth":3185,"Ġlicense":3186,"friend":3187,"ze":3188,"Ġmood":3189,"âĢĿ":3190,"ĠDay":3191,"Ġdishes":3192,"Ġanimals":3193,"Ġfac":3194,"Ġgar":3195,"Ġwebs":3196,"ĠGreen":3197,"Ġthrow":3198,"ĠShould":3199,"Ġhous":3200,"Ġpractice":3201,"itive":3202,"illy":3203,"Ġspeed":3204,"Ġsurprised":3205,"ĠOffice":3206,"Ġdish":3207,"Ġsmell":3208,"Ġideas":3209,"umn":3210,"Ġpaying":3211,"Ġkept":3212,"ĠAnn":3213,"Ġsource":3214,"Ġpen":3215,"Ġ18":3216,"Ġraise":3217,"Ġheadache":3218,"Ġcommon":3219,"Ġcampus":3220,"gest":3221,"Ġborrow":3222,"Ġlap":3223,"Ġbright":3224,"Ġopt":3225,"Ġfoods":3226,"Ġbeginning":3227,"ertificate":3228,"Ġgonna":3229,"Ġanywhere":3230,"board":3231,"Ġchocolate":3232,"ĠMake":3233,"Ġnote":3234,"ĠGu":3235,"Ġsupport":3236,"Ġap":3237,"Ġwake":3238,"ined":3239,"Ġgarden":3240,"ĠCar":3241,"Ġupset":3242,"bye":3243,"Ġsolve":3244,"kes":3245,"ĠTa":3246,"ĠLast":3247,"Ġarrive":3248,"Ġmistake":3249,"Ġwalking":3250,"Ġsometime":3251,"oof":3252,"ĠMan":3253,"used":3254,"Ġborn":3255,"Ġbathroom":3256,"Ġcrow":3257,"Ġrout":3258,"Ġoffic":3259,"Ġvide":3260,"Ġinspect":3261,"fortunately":3262,"ĠToday":3263,"Ġallowed":3264,"Ġcrowd":3265,"Let":3266,"Ġblock":3267,"Ġdra":3268,"Ġoil":3269,"aret":3270,"Ġbuses":3271,"Ġfinan":3272,"BA":3273,"ying":3274,"Ġstory":3275,"Ġground":3276,"Ġannoun":3277,"Ġassistant":3278,"gar":3279,"llen":3280,"'.":3281,"lim":3282,"anna":3283,"imum":3284,"Ġneck":3285,"ĠHowever":3286,"eag":3287,"Ġshare":3288,"Ġneeded":3289,"ized":3290,"Ġrob":3291,"Ġhappens":3292,"Ġener":3293,"Ġpassed":3294,"Will":3295,"oice":3296,"Ġtur":3297,"ĠYuan":3298,"Ġhoney":3299,"Ġbud":3300,"Ġperf":3301,"Who":3302,"Ġresponsible":3303,"Ġrelationship":3304,"Ġimmedi":3305,"fl":3306,"Ġdead":3307,"Ġarrest":3308,"vings":3309,"Ġbread":3310,"Ġlikes":3311,"Ġbreath":3312,"Ġmill":3313,"Ġwilling":3314,"ĠThose":3315,"Ġcolors":3316,"Ġbasket":3317,"ĠAccount":3318,"%.":3319,"Ġport":3320,"ĠCor":3321,"ules":3322,"ĠLike":3323,"lace":3324,"Ġloud":3325,"Ġrese":3326,"Ġshows":3327,"Ġmarketing":3328,"Ġconcern":3329,"Ġenter":3330,"Ġeconom":3331,"Ġeggs":3332,"Ġscience":3333,"orth":3334,"Ġplast":3335,"ilt":3336,"Ġfees":3337,"ĠCanad":3338,"Ġ40":3339,"Ġinclude":3340,"Ġstomach":3341,"iring":3342,"Ġclosed":3343,"Ġusual":3344,"Ġskir":3345,"Ġformal":3346,"Ġsubject":3347,"Ġgiving":3348,"ples":3349,"Ġbow":3350,"Ġnet":3351,"Ġcolleag":3352,"Ġmoving":3353,"Which":3354,"Ġexpected":3355,"Ġpieces":3356,"ĠBank":3357,"ĠPark":3358,"cut":3359,"uation":3360,"ĠYear":3361,"ĠHu":3362,"Ġalone":3363,"Ġclimb":3364,"ograph":3365,"Ġurg":3366,"Ġmemb":3367,"Ġ11":3368,"Ġlights":3369,"wards":3370,"ledge":3371,"ĠOnly":3372,"Ġdrop":3373,"Ġneighbor":3374,"Ġmembers":3375,"Ġworse":3376,"ĠPC":3377,"Ġindustry":3378,"off":3379,"ĠNext":3380,"ĠEur":3381,"Ġincluding":3382,"hood":3383,"Ġappli":3384,"Ġsmoke":3385,"Ġlaund":3386,"Ġbat":3387,"aches":3388,"Ġgraduated":3389,"izza":3390,"Ġcul":3391,"ishing":3392,"Ġnut":3393,"Ġquit":3394,"Ġpacking":3395,"Ġhurts":3396,"Ġdivor":3397,"fess":3398,"Ġbal":3399,"ĠSince":3400,"Ġdecla":3401,"ĠFrom":3402,"Ġincluded":3403,"Ġage":3404,"ĠHar":3405,"ellow":3406,"Ġwash":3407,"Ġgroup":3408,"Ġbags":3409,"Ġmagazine":3410,"Ġvideo":3411,"Ġfinancial":3412,"lt":3413,"Ġwood":3414,"Ġbooked":3415,"Ġremind":3416,"Ġinvited":3417,"Ġbaggage":3418,"Ġboyfriend":3419,"Ġlaptop":3420,"Ġsitting":3421,"Ġtow":3422,"Ġdi":3423,"Ġlower":3424,"loyment":3425,"Ġpurchase":3426,"Ġbother":3427,"ĠExcuse":3428,"Ġagreement":3429,"Ġcertain":3430,"ĠPre":3431,"Ġbackground":3432,"Ġcheese":3433,"Ġfamiliar":3434,"ĠInd":3435,"erry":3436,"Ġpool":3437,"Ġsele":3438,"Ġplayed":3439,"Ġinvol":3440,"Ġshirts":3441,"Ġresponsib":3442,"Ġwebsite":3443,"Ġlaundry":3444,"ners":3445,"Ġsearch":3446,"ĠThree":3447,"Ġfla":3448,"indy":3449,"Ġstarting":3450,"ĠâĢľ":3451,"Ġsurprise":3452,"Ġchat":3453,"Ġbase":3454,"Ġpower":3455,"Ġschools":3456,"Ġfactory":3457,"Ġsquare":3458,"Ġmix":3459,"acks":3460,"Ġproduce":3461,"Ġspecific":3462,"ole":3463,"Ġdanger":3464,"Ġpity":3465,"ĠDep":3466,"ctions":3467,"Ġimag":3468,"Ġbigger":3469,"Ġimpressed":3470,"Ġselling":3471,"Ġchallen":3472,"Ġtelephone":3473,"Ġmotor":3474,"urch":3475,"ĠCal":3476,"laim":3477,"Ġknows":3478,"ilar":3479,"Ġarm":3480,"Ġsweater":3481,"Ġprepared":3482,"Ġhorrible":3483,"ials":3484,"ror":3485,"Ġbra":3486,"ĠSe":3487,"ĠDr":3488,"amb":3489,"Ġappet":3490,"Ġreserve":3491,"Ġshape":3492,"Ġmarry":3493,"rant":3494,"orn":3495,"Ġrelig":3496,"Ġtraditional":3497,"gency":3498,"ipped":3499,"year":3500,"Ġcities":3501,"ĠAir":3502,"Ġdem":3503,"Ġsuggestions":3504,"vey":3505,"Ġcand":3506,"Ġsport":3507,"Ġprot":3508,"Ġmonthly":3509,"Ġarrived":3510,"uty":3511,"ĠSara":3512,"Ġspring":3513,"ĠPa":3514,"ĠExactly":3515,"hand":3516,"Ġadvance":3517,"Now":3518,"Ġest":3519,"Ġcents":3520,"alian":3521,"roy":3522,"une":3523,"Ġstayed":3524,"Ġbottom":3525,"Ġplastic":3526,"Ġrange":3527,"riger":3528,"Ġmath":3529,"Ġrefriger":3530,"Ġemail":3531,"Ġattractive":3532,"new":3533,"Ġfle":3534,"ane":3535,"isten":3536,"Ġagre":3537,"Ġresearch":3538,"aking":3539,"da":3540,"ĠAr":3541,"inda":3542,"Ġhasn":3543,"ĠKe":3544,"Ġdocument":3545,"Ġavoiding":3546,"you":3547,"Ġcig":3548,"itten":3549,"Ġstup":3550,"Ġexperien":3551,"Ġautom":3552,"Ġguests":3553,"Mary":3554,"Ġcere":3555,"ĠRes":3556,"Ġtend":3557,"Ġang":3558,"ĠApp":3559,"Ġrules":3560,"ĠCity":3561,"Ġchem":3562,"Ġtext":3563,"Ġleaves":3564,"Ġnatural":3565,"Ġfried":3566,"Ġdogs":3567,"Ġquar":3568,"Ġscen":3569,"Ġeasily":3570,"ĠBarb":3571,"Ġstupid":3572,"Ġwanna":3573,"Ġmark":3574,"Ġbike":3575,"vered":3576,"Ġcock":3577,"Ġcovered":3578,"ĠJul":3579,"Ġpoints":3580,"Ġvarious":3581,"shaking":3582,"fessor":3583,"Look":3584,"night":3585,"Ġ...":3586,"Ġpet":3587,"Ġgives":3588,"Ġrice":3589,"ĠJenny":3590,"Ġadvant":3591,"ĠEveryone":3592,"Ġlocated":3593,"Ġgeneral":3594,"Ġcases":3595,"itation":3596,"Ġdad":3597,"Ġdollar":3598,"Ġtechnology":3599,"Ġwatched":3600,"ah":3601,"Ġrates":3602,"ĠSep":3603,"osh":3604,"Ġstuck":3605,"Ġwritten":3606,"Ġmarri":3607,"ĠRoom":3608,"vision":3609,"Ġweak":3610,"Ġrom":3611,"Ġchop":3612,"Ġvisiting":3613,"Ġyounger":3614,"pose":3615,"Ġlit":3616,"adays":3617,"Ġkeeping":3618,"Ġeasier":3619,"Ġdirector":3620,"Ġtough":3621,"Ġwrink":3622,"alent":3623,"ĠCindy":3624,"ĠJason":3625,"Ġwarrant":3626,"Ġflying":3627,"poration":3628,"Ġdozen":3629,"Ġspo":3630,"ntown":3631,"Ġunits":3632,"Ġkeeps":3633,"Ġmedium":3634,"Ġexhibition":3635,"Come":3636,"Please":3637,"ured":3638,"ĠOct":3639,"Ġeverywhere":3640,"Ġbuilt":3641,"Ġopening":3642,"Ġolder":3643,"Ġsecretary":3644,"case":3645,"Ġproduction":3646,"Ġlistening":3647,"Ġprofessional":3648,"Ġcolleagues":3649,"cover":3650,"Ġpush":3651,"Ġfeet":3652,"Ġcareer":3653,"moking":3654,"Ġcrowded":3655,"light":3656,"Ġach":3657,"Ġmall":3658,"Ġheat":3659,"Ġknowledge":3660,"Ġfriendly":3661,"Ġpaint":3662,"Ġpleasant":3663,"Ġactiv":3664,"Ġelectric":3665,"Ġdeveloped":3666,"Ġut":3667,"ify":3668,"Ġfever":3669,"Ġguide":3670,"Ġbiggest":3671,"Ġmagazines":3672,"Ġrefrigerator":3673,"ober":3674,"urity":3675,"Ġbrown":3676,"Ġsuits":3677,"Ġlevel":3678,"Ġphys":3679,"Ġpainting":3680,"ĠâĢĶ":3681,"ĠBlack":3682,"eal":3683,"gain":3684,"met":3685,"nic":3686,"ron":3687,"Ġforty":3688,"Ġrad":3689,"Ġstories":3690,"Ġcalls":3691,"Ġintroduce":3692,"anish":3693,"ĠMmm":3694,"Ġnoise":3695,"Ġeverybody":3696,"Ġconference":3697,"Ġfault":3698,"Ġvote":3699,"ĠGer":3700,"emp":3701,"Ġregistered":3702,"Ġwrinkles":3703,"oan":3704,"hael":3705,"Ġoffense":3706,"Ġenc":3707,"Ġpapers":3708,"atives":3709,"Ġran":3710,"Ġcleaning":3711,"Ġchamp":3712,"ĠJapanese":3713,"Ġbasketball":3714,"employment":3715,"nes":3716,"zz":3717,"Ġ14":3718,"ĠKing":3719,"Ġtelevision":3720,"ĠSpanish":3721,"Ġtill":3722,"owntown":3723,"ĠLe":3724,"ĠPar":3725,"Ġscore":3726,"Ġordered":3727,"Ġbon":3728,"eng":3729,"ednes":3730,"ĠWednes":3731,"itted":3732,"Ġcommunic":3733,"ĠWednesday":3734,"ience":3735,"ucy":3736,"orter":3737,"Ġability":3738,"ivered":3739,"Ġchurch":3740,"Ġskilled":3741,"Ġdelivered":3742,"Ġmodel":3743,"Ġhuge":3744,"Ġstam":3745,"Ġended":3746,"Ġincrease":3747,"Ġcigaret":3748,"Thank":3749,"ĠX":3750,"Ġcine":3751,"llo":3752,"Ġdue":3753,"ises":3754,"Ġant":3755,"Ġstrange":3756,"Ġsituation":3757,"ĠMonica":3758,"Ġbudget":3759,"dden":3760,"Ġcancel":3761,"Ġsudden":3762,"Ġcarp":3763,"Ġconfirm":3764,"iction":3765,"Ġvariet":3766,"Ġregistration":3767,"cer":3768,"eorge":3769,"sc":3770,"Ġwestern":3771,"ĠTra":3772,"Ġjour":3773,"Ġsugar":3774,"Ġsmart":3775,"Ġadm":3776,"Ġscared":3777,"ĠAlso":3778,"Ġsurf":3779,"pril":3780,"Ġsam":3781,"rees":3782,"Ġwast":3783,"Ġdoub":3784,"ison":3785,"ĠMore":3786,"hy":3787,"Ġfea":3788,"ĠTe":3789,"ĠApril":3790,"Ġcomplic":3791,"Ġnovel":3792,"ĠUh":3793,"XXXXXXXXXXXXXXXXXXXXXXXXXXXXXXXX":3794,"Ġimmediately":3795,"Ġmarriage":3796,"25":3797,"Ġserve":3798,"Ġrenew":3799,"Ġjump":3800,"Ġopened":3801,"ĠEngland":3802,"Ġexcuse":3803,"ĠKong":3804,"Ġveh":3805,"Ġdaily":3806,"ĠEurope":3807,"Ġachieve":3808,"Ġcertificate":3809,"verage":3810,"ĠNever":3811,"Ġspot":3812,"Ġfelt":3813,"Ġages":3814,"Ġrock":3815,"Ġcurls":3816,"Ġcrit":3817,"Ġdeclare":3818,"ĠOctober":3819,"29":3820,"lip":3821,"men":3822,"wor":3823,"Ġet":3824,"itch":3825,"ading":3826,"ĠCon":3827,"ĠCanada":3828,"wise":3829,"arling":3830,"acket":3831,"Ġeveryday":3832,"Ġtalked":3833,"ĠPaul":3834,"Ġstores":3835,"cient":3836,"Ġaccounting":3837,"Ġfaster":3838,"Ġperfume":3839,"Ġurgent":3840,"ĠSept":3841,"par":3842,"Ġpizza":3843,"arant":3844,"Ġhelps":3845,"ĠExc":3846,"Ġvoice":3847,"Ġsky":3848,"Ġhaircut":3849,"Ġprograms":3850,"Ġdamage":3851,"Ġdangerous":3852,"mosp":3853,"alog":3854,"Ġasleep":3855,"Ġhelping":3856,"Ġhelpful":3857,"ardon":3858,"Ġsavings":3859,"Ġwarning":3860,"Ġsuitable":3861,"Ġoccas":3862,"mosphere":3863,"Ġfirm":3864,"Ġmeals":3865,"ĠDoctor":3866,"ressive":3867,"Ġunemployment":3868,"Ġsimilar":3869,"Ġcaught":3870,"reme":3871,"ĠRem":3872,"Ġwearing":3873,"Ġtraveling":3874,"ĠWorld":3875,"Ġagreed":3876,"inter":3877,"Ġcause":3878,"Ġdowntown":3879,"Ġpage":3880,"Ġlives":3881,"ĠSu":3882,"amed":3883,"Ġatmosphere":3884,"Ġamong":3885,"olars":3886,"action":3887,"ĠAlice":3888,"Ġtravell":3889,"ires":3890,"Ġwet":3891,"atic":3892,"ote":3893,"Ġroses":3894,"Ġjam":3895,"ills":3896,"ums":3897,"Ġhighly":3898,"Ġsne":3899,"irty":3900,"Ġhelped":3901,"Ġsimp":3902,"Ġdestroy":3903,"Ġbonus":3904,"Ġsneering":3905,"Ġglo":3906,"Ġlips":3907,"Ġwashed":3908,"Ġgotten":3909,"Ġtrains":3910,"ĠAnna":3911,"Ġpresentation":3912,"ĠInternational":3913,"Ġsandw":3914,"Ġowe":3915,"Ġhimself":3916,"Ġcharacters":3917,"ique":3918,"vin":3919,"Ġfell":3920,"Ġeffic":3921,"ĠHoney":3922,"Ġexport":3923,"Ġacross":3924,"Ġtotally":3925,"Ġsuccessful":3926,"ĠPeter":3927,"house":3928,"Ġfare":3929,"ĠWere":3930,"att":3931,"Ġsepar":3932,"Ġclos":3933,"Ġsmaller":3934,"Ġinspection":3935,"ĠPretty":3936,"Ġcir":3937,"ĠHis":3938,"Ġguarant":3939,"Ġclassical":3940,"Ġnearly":3941,"Ġnearby":3942,"Ġhuh":3943,"ĠMichael":3944,"Ġangry":3945,"Ġcinema":3946,"ĠSeptember":3947,"100":3948,"In":3949,"cl":3950,"Ġclaim":3951,"ulls":3952,"Ġcentre":3953,"Ġvalue":3954,"Ġsimply":3955,"Your":3956,"Ġsecurity":3957,"rency":3958,"Ġfilms":3959,"Ġarticle":3960,"Ġcatalog":3961,"Ġphotos":3962,"Ġretire":3963,"Ġadvertisement":3964,"erved":3965,"ĠListen":3966,"aker":3967,"Ġterr":3968,"ĠAbsolutely":3969,"Ġprepar":3970,"Ġgraduation":3971,"ĠDevelop":3972,"ĠParis":3973,"Ġcomplicated":3974,"inally":3975,"isa":3976,"ĠCent":3977,"ĠEm":3978,"elve":3979,"weight":3980,"Ġrepelled":3981,"Ġfigures":3982,"ĠZhang":3983,"ĠProbably":3984,"covering":3985,"isle":3986,"Ġorig":3987,"Ġmanu":3988,"Ġleather":3989,"Ġcontinue":3990,"Ġcandid":3991,".)":3992,"ds":3993,"lines":3994,"eral":3995,"Ġfed":3996,"ĠTed":3997,"Ġhire":3998,"ĠJu":3999}